#version: 0.2
Ġ Ġ
ĠĠ ĠĠ
ĉ ĉ
r e
i n
Ċ ĉĉ
s e
ĠĠ Ġ
ĠĠĠĠ ĠĠĠĠ
Ġ =
Ċ ĉ
Ġ (
Ġ *
e r
s t
o n
Ġ t
) ;
l e
i f
- >
Ċ ĠĠĠĠ
a t
Ġ c
o f
o r
s i
m e
h e
Ġ a
Ċ ĠĠĠ
in t
g e
d e
Ġ p
Ġ {
Ġ "
c t
a l
Ġ -
r a
u r
of f
e n
c e
ĊĠĠĠĠ Ġ
se t
i t
Ġt he
m a
Ċĉĉ ĉ
Ċ ĠĠĠĠĠĠĠĠ
n e
Ġ f
Ċĉĉ ĉĉ
u n
Ġ i
re t
m s
z e
Ġ 0
Ġ s
o t
in g
c a
re a
Ġ &
i d
L E
r o
p a
ur n
si ze
ret urn
/ *
Ċ Ċ
h a
b u
p e
Ġ* /
Ġ w
ĊĠĠĠĠ ĠĠĠ
off set
u e
Ġ n
l o
i on
c k
r int
c o
t e
st r
Ġ if
e l
bu f
ca se
n d
i s
Ġ F
er r
Ġ= =
i le
) )
rea k
b reak
x t
u t
l a
s s
Ġ }
o p
n t
c h
c on
Ċ Ġ
Ġ S
Ġ b
a d
at e
g s
Ġ in
Ġ re
m p
Ġ d
e t
I LE
E R
o l
Ġ l
: :
se r
e d
Ġ m
ĠF ILE
ma ge
u ct
str uct
v i
Ġ I
Ġ N
u l
Ġi mage
le n
A G
ĠĠĠĠĠĠĠĠ ĠĠĠĠ
ĊĠĠĠĠĠĠĠĠ ĠĠĠ
a r
i l
l i
a n
Ġt o
Ġ v
Ġ <
Ġ 1
U L
t r
Ġ !
Ġ size
I N
O R
Ġ +
Ġ int
Ġt h
en d
a me
u p
Ġ /*
ra me
p rint
S T
i c
g ne
S S
Ġc on
gne d
O N
i o
" ,
y pe
Ġ se
en t
Ġ g
( &
Ġ e
Ġ de
Ġ( !
ha r
UL L
f ile
o id
t h
si on
( )
Ġ of
at a
l y
A T
M E
f o
Ġ |
ne w
pa ge
a ck
p p
Ġ return
s c
ĠN ULL
Ġi s
s k
d r
v er
Ġ& &
Ġ! =
Ċ ĊĠĠĠ
Ġc o
v e
Ġ O
3 2
R e
Ġ D
Ġ off
te xt
Ġ u
Ġ x
me m
a se
Ġ P
I n
e w
Ċ Ċĉ
i p
Ġ offset
Ġ el
Ġw e
S E
err or
O P
o de
s o
ot o
ms g
Ġ >
Ġ T
ĊĠĠĠĠĠĠĠĠ ĠĠĠĠ
Ġ o
al ue
AG E
f or
c i
ge t
la gs
f a
on g
me nt
pa ra
N D
ul t
v oid
ĊĠĠĠĠĠĠĠĠ ĠĠĠĠĠĠĠĠ
a ge
ce ss
i pe
ue st
n s
n ame
at ion
un t
s g
Ġ A
si gned
un signed
Ġ ma
ct ion
tr y
d d
Ġ st
co de
6 4
v m
Ġa n
i g
t a
rea d
b le
d o
f lags
i x
c p
in fo
ro m
E N
d ata
s h
u m
vi ce
A ND
S L
Ġ C
Ċĉ ĠĠĠ
P C
Ġl ong
Ġth is
I D
h t
re e
re gs
M sg
S I
u ser
Ġ( (
Ġc har
it h
Ċĉĉĉĉ ĉ
Ġb e
a s
t ing
ĊĊ Ġ
vi ew
R E
c he
para ms
) );
+ +
o k
q u
Ġa nd
t ype
Ġf or
print f
p ut
Ġ k
re nt
_ _
h ci
ĠĠĠĠĠĠĠĠ ĠĠĠĠĠĠĠĠĠĠĠĠ
ĠS SL
ĠI PC
w a
Ġ %
if y
it e
page s
Ġ it
al l
un k
ER R
SS AGE
ME SSAGE
Ġel se
( );
i e
o d
p h
q uest
Ġ M
Ġc ol
lo ck
C K
y te
Ġ E
Ġp rint
io v
ĠO n
H AND
h s
Ġ ha
Ġ op
Ġn ot
ol d
Ġ| |
o me
s z
Ġ ge
al i
Ġw ith
f rame
re s
fa ult
ting s
Ġcol or
h dr
l ot
y le
Ġ '
HAND LE
A L
g oto
Ġ 2
Ġ or
ĊĠĠĠĠĠĠĠĠĠĠĠĠ ĠĠĠ
Ġ buf
Ġ err
or y
Ġa l
HANDLE R
) ,
0 0
L O
W e
or t
Ċĉĉĉ ĠĠĠ
Ġ< <
Ġsize of
ome try
F rame
L S
f s
m l
Ġge ometry
C T
E T
P rint
b yte
d u
n o
n ot
Ġ on
re ss
in e
Ċĉĉ ĠĠĠ
ad d
an ce
A D
r ite
Ġp a
ĊĠĠĠĠĠĠĠĠ ĠĠĠĠĠĠĠĠĠĠĠĠ
Ġf ile
S C
_ .
i r
Ġ* )
nd le
con text
ok ie
ĠĠĠĠĠĠĠĠĠĠĠĠĠĠĠĠĠĠĠĠ ĠĠ
H E
O T
S et
k e
t er
Ġ me
ct p
ne l
ro cess
con st
T LS
n buf
re view
st ance
Ġt r
lo c
Ġcon st
( ))
I O
m at
con f
Ġv alue
S t
u s
Ġ he
Ġ ne
at h
set tings
ma p
Ġo ut
byte s
t ion
v al
x hci
ur ce
Ġl hs
M A
U N
e le
Ġf rom
Ġd o
ali gned
C on
b o
w it
Ġt ype
co unt
AT E
sk b
wit ch
f ree
w rite
Ġ h
ĠĠĠĠ Ġ
Ċĉĉĉĉ ĉĉ
Ġs o
ad dr
cp u
che d
B U
G et
I C
c u
e xt
p ort
q iov
t ra
Ġ len
al se
V ER
a ble
s witch
en ce
li st
li ent
qu ence
u st
v ent
Ġ r
re ct
Ġa dd
Ġg oto
Ġe x
] ;
f d
o s
o re
Ġc a
si g
Ġa s
de x
ca p
ha n
SS L
Ġde sc
( "
D B
N ode
R P
_ ->
b ack
c har
i st
p ipe
s sion
t i
Ġ 4
Ġ V
Ġ str
er s
Ġa pp
de fault
Ġ" ,
ar ch
Ġ+ =
ix el
B E
D E
] ,
e x
f e
g th
o st
Ġ un
Ġ end
Ġ We
Ġp ixel
Ġs k
pa ce
A CK
B IO
L I
a pp
c ur
c cess
r m
Ġc h
en sion
Ġf alse
Ċĉĉĉĉ ĠĠĠ
Ġn ame
con t
Ġth at
++ )
f p
g N
v el
Ġ mem
ĠĠĠĠ ĠĠ
re g
er nel
( (
I P
P ath
k t
p r
re d
at ic
Ġc ase
ra m
size of
il l
so urce
ERR OR
" )
D e
M AT
h er
w n
Ġ new
un d
Ġw h
mp le
Ġse quence
SE T
Ġop code
lot s
1 6
I F
L D
N T
a g
f er
o int
o ut
u re
y s
Ċ ĊĠĠĠĠĠĠĠ
Ġ struct
Ġ error
in it
at or
de f
ro up
Ġn o
Ġn um
() );
as conf
all back
m ma
t o
Ġ set
Ġt ra
it y
lo ad
ss age
Ġm at
ul l
li g
ON F
In put
Ġel f
ĊĠĠĠĠĠĠĠĠĠĠĠĠĠĠĠĠ ĠĠĠĠĠĠĠĠ
Ġtr ue
F F
d i
g ic
k vm
l u
s p
Ġ G
Ġ at
le vel
ne t
Ġf a
te d
wa p
ĊĠĠĠĠĠĠĠĠĠĠĠĠĠĠĠĠĠĠĠĠ ĠĠĠ
C HE
b ase
e vent
g ram
p s
s pace
pe d
Ġm is
Ġv oid
th od
Ġu ser
ĠT h
for m
E X
F OR
e m
i al
i ze
p review
p kt
r y
st yle
Ġp ro
lo w
co p
is p
ad er
Ġcon text
Ġx ph
Ġmis aligned
" ;
. .
N OT
O b
S D
T H
d p
f n
o b
t mp
v cpu
Ġc op
Ġp r
ct xt
ha ndle
Ġd ata
IN G
IN T
end ing
Ġ> =
Ġadd ress
LI ST
mma nd
FOR MAT
A R
B SD
M AG
Z E
c m
f f
h l
m m
p er
r r
t y
t sc
Ġ __
Ġ BIO
st atic
Ġc rm
or d
LE N
pe ct
la st
ch unk
ĠI f
ul d
() ,
Ġco okie
Re quest
Ġal l
LIST EN
' t
D I
D TLS
L AG
b io
e ct
i ed
j ust
s ctp
v alue
se arch
Ġa re
Ġp ipe
Ġs ctp
Ġco unt
ĠA SC
ĠSSL err
Con text
cu ment
dex ed
ĠASC ONF
" );
C OR
H el
L F
O FF
P a
i v
i ve
n um
p ly
p du
Ġ :
Ġ unsigned
re ate
in k
in s
le ar
Ġc an
me ms
al loc
ot al
bu s
ĠI NT
ME M
ĠP rint
OP M
so ck
Ġ> >
ig ht
do w
SI ON
Frame Msg
) .
I ON
X Path
b er
e s
g c
g roup
n off
q ue
u int
in st
in ue
de d
de sc
ra g
en try
id ate
Ġb ase
Ġre gs
mp l
il s
name sz
St yle
rect ory
ACK ET
C o
P E
P R
S H
T E
U E
c s
d ate
g ate
m i
n bytes
s ha
Ċ ĊĠĠĠĠĠĠĠĠĠĠĠ
Ġ ?
Ġ break
Ġ msg
Ġ old
st ore
Ġc or
al ly
ra ct
co okie
nd er
nd idate
ser ver
len gth
get u
ml XPath
Ġon e
lig ht
rr or
COR E
' re
E x
G TH
I G
M an
R T
V alue
] .
c mp
i ew
i rectory
l f
p ro
p tion
s r
u ccess
z z
Ġ /
Ġ U
Ġ si
Ġ ra
ĠĠĠĠ ĠĠĠ
re quest
on se
Ġp re
Ġp er
ile d
xt ension
ĠS RP
il d
Ġse ction
Ġx hci
so c
SI ZE
Ġk vm
ĠE LF
LO G
not ify
Ġme thod
reg ion
Ġtra ns
CHE CK
Ob j
LEN GTH
DTLS V
LAG S
N U
P AGE
S ele
V M
b ad
e k
f id
g fn
j ob
l l
u res
Ġ R
Ġ up
Ġ qiov
le an
Ġa r
Ġp oint
ot her
pa re
Ġn ode
Ġn bytes
lo se
co l
la ce
la zz
Ġre c
ar y
li p
ĠD TLS
ĠD CHECK
para m
vice Man
ht ml
Ġ' \
ti me
Ġpixel s
ĠTh is
cop y
Ġcop y
' s
D ID
E rror
K VM
O O
P rocess
V iew
a p
d off
e ssage
m o
o m
r ip
u se
v ma
w e
Ċ Ċĉĉ
Ġ 8
Ġ L
Ġ ret
Ġ Re
re n
st ate
he ck
Ġp ack
Ġn buf
Ġd on
Ġv er
Ġse ssion
Ġ| =
Ġma gic
vm cs
cp y
add ress
AD D
Ġ*) &
mat ched
cont inue
dexed DB
Hel lo
mems lots
( *
E lf
L A
M I
O U
O n
P ACKET
S ER
T o
c b
f ull
i b
n h
o uld
re ply
er y
at ures
he n
Ġp du
ce ption
Ġs h
co ped
el se
buf s
op s
Ġb ack
ĠI n
ar t
end if
ST R
ON G
() ->
Re s
Ġu int
In dexedDB
ĊĠĠĠĠĠĠĠĠĠĠĠĠĠĠĠĠ ĠĠĠĠĠĠĠĠĠĠĠĠ
Ġan y
Ġk ernel
Ġha ve
We b
BU G
Ġch unk
Input Msg
Ġpack et
' :
) :
> >
A I
E CT
H O
I E
S G
S P
T R
] );
c nt
c lu
f light
g uest
i me
i ck
k ernel
m in
n er
n ge
n pages
p c
p tr
p ending
w d
Ġ 3
Ġ ~
Ġ lo
ĠĠĠĠĠĠĠĠ Ġ
Ġt ext
Ġa d
Ġp age
ur rent
Ġs wap
str ing
buf size
ĠF LAGS
UL T
Ġu se
ment s
Ġst d
Ġha ndle
add ip
Ġhe ader
Ġapp ly
cur rent
NOT E
OFF SET
C H
D ATE
L ONG
M essage
N O
S ize
S uccess
V AL
_ )
a ut
o si
o lean
p wd
s a
s f
t ent
x p
Ġ 5
re set
in stance
in dow
se ssion
le ct
at ch
Ġc lazz
ra ms
ma x
Ġf d
ro w
ro ut
pa rent
buf fer
Ġin stance
Ġre quest
ser vice
struct ion
ĠI D
In fo
dd s
ig h
ta in
Ġfile name
ir st
Ġne xt
val id
VER SION
sig n
Ġdesc sz
Ġmem ory
sp onse
HO ST
* /
A P
A dd
B LE
I s
S c
S RP
a nd
c lock
d ir
h ost
i m
n mi
p rocess
s size
u le
Ġ le
re sh
st d
Ġt otal
Ġf rame
Ġf rag
ca n
Ġw ill
lo b
ck et
co mp
el y
la y
Ġb o
Ġb y
Ġre s
Ġre nder
ER N
AG IC
IN VAL
mem cpy
do cument
RE G
ĠM AGIC
00 00
Ġtr y
val u
ext ension
tra st
DE BUG
Ġsk b
ag ick
Ġnum ber
ndidate s
bad read
rip t
resh old
% "
= %
B o
C E
C ON
C allback
F or
O p
P RE
b it
b il
c lient
c lose
f rom
i se
m ode
n ode
s or
s lot
u b
Ġ X
Ġ q
Ġ ms
Ġ bu
Ġ LOG
in is
on t
le d
le gate
Ġc urrent
it er
ma r
ne ction
Ġf id
Ġs a
Ġs ha
ro u
pa r
Ġw hen
ser t
ser ial
ĠN T
ĠN OT
ul ate
il ure
Ġint er
th is
Ġco mp
ĠP T
ĠT he
ĊĠĠĠĠĠĠĠĠĠĠĠĠĠĠĠĠ ĠĠĠ
ĊĠĠĠĠĠĠĠĠĠĠĠĠĠĠĠĠ ĠĠĠĠĠĠĠĠĠĠĠĠĠĠĠĠĠĠĠĠ
Ġnot e
Ġbuf fer
CT P
Print ing
bo ol
tra ns
han nel
IF Y
Ġpro gram
que ue
Ġper f
mo ve
STR ING
std err
- -
> (
A M
F rom
H ost
I B
I X
L Y
O D
P tr
R ule
S er
Y PE
] ))
b lock
c allback
e mp
f ix
h v
i ch
n ing
p re
r bio
s in
Ġ H
Ġ get
Ġ settings
ĠĠĠĠĠĠĠĠ ĠĠ
Ġ* (
st e
or k
de ta
de vice
Ġp ut
Ġp rocess
pe er
ĠS T
ĠS end
ĠS CTP
Ġd irectory
ar d
Ġ1 6
OR T
end er
AT ION
ver sion
Ġco mmand
ĠD e
Ġu s
Ġx sh
age ment
Ġma ke
ig in
ta g
ĠC lient
Ċĉĉĉĉĉ ĠĠĠ
no wn
Ġon ly
St ate
MA X
Ġlen gth
fe atures
cont ro
fp u
De vice
col or
Ġrec ord
viceMan agement
OO B
IndexedDB Msg
row ser
Callback s
ĠClient Hello
( !
) ->
0 8
B A
D o
D ata
E I
E L
F ile
M et
O L
O S
P age
P review
U n
Y LE
] )
a ction
c ce
g h
g in
m u
o us
s y
v a
w h
y c
Ġ j
Ġ ERR
Ġ loc
Ġ Get
Ġ level
Ġ last
Ġ KVM
le ase
if ied
of ile
si ble
de v
ra w
ra ry
ne xt
Ġf size
Ċĉĉĉĉ ĠĠĠĠĠ
un aligned
Ġs up
Ġs coped
ca che
id x
ro ot
ro und
ha ract
offset s
buf f
)) )
ĠS E
Ġl ist
ar gs
Ġ< =
tr ing
Ġint o
ST YLE
io ve
Ġse nd
pp ing
Ġx nh
mem ory
In stance
ip her
fa ilure
ĠA dd
Ġma x
++ );
unk nown
Ġ2 2
HE AD
Ġne ed
Ġstr cmp
Ġwh ile
Ġmat ched
ps offsets
pect ed
SH ORT
Ex e
Ġtrans form
AI L
clu de
Ġbo ol
inis h
iove c
) |
< <
B ack
C reate
D D
D P
E D
I mpl
K ERN
N ET
P os
S K
] <<
_ );
a y
a rea
a mp
a ke
a iled
a soc
b e
b l
b rowser
d isp
l ine
o se
s wap
t p
u i
x y
x mlXPath
Ġ ed
Ġ view
Ġ just
re fs
er ator
st amp
Ġc lient
Ġc lear
Ġc heck
me di
ge s
Ġp h
ur l
ĊĠĠĠĠĠĠĠĠ Ġ
Ġf lags
Ġf irst
Ġs pe
ot e
ot ify
ca le
id th
ro p
bu g
Ġw as
lo g
el f
ss o
Ġre l
Ġre sponse
ol ver
Ġl ink
Ġth reshold
rame ter
print ing
Re source
Ġx mlXPath
ĠT R
Ġo b
++ ;
qu ery
Ġ% "
ĠE M
Ġprint f
Ġha s
ali ze
res sion
Ġpa rent
Set tings
Ġhe re
MA P
BU F
cu te
Ġstr ing
Ġwh ich
LD ATE
ĊĠĠĠĠĠĠĠĠĠĠĠĠĠĠĠĠĠĠĠĠĠĠĠĠ ĠĠĠĠĠĠĠĠ
em u
ĠPrint Host
PR INT
time stamp
Res olver
Bo olean
bil ity
Ġq emu
deta ils
viceManagement Back
yc le
HEAD ER
Exe cute
NET BSD
ĠPrintHost Msg
viceManagementBack end
A nd
A ST
C SS
E K
E INVAL
F inish
F ailed
H T
I V
O M
S tring
T ra
T ype
U T
V IE
_ (
a nt
a va
d ing
f x
g op
h w
k Error
k ely
l page
m ulate
n r
n iov
p oint
u d
x ph
Ġ W
Ġ html
Ġ unknown
re f
re l
in dex
in flight
se g
er ify
st ro
Ġt ime
if i
Ġc reate
Ġc haract
Ġa pe
Ġa soc
Ġi d
Ġi bus
Ġs ure
rea m
ro me
co mmand
el l
la g
la r
ĠS et
ĠS IG
ate d
Ġin it
Ġin valid
Ġd is
Ġl ine
Ġm g
Ġm ust
il ter
an other
Ġcon trast
Ġe xt
Ġe xtension
Ġe valu
Ġde ter
ĠO S
Ġma y
ig n
Ġfor mat
wa it
Ġor igin
Ġpa rameter
Ġme ssage
mat ch
UN IX
tra ce
able d
ex it
fe ren
Ġun ix
pr i
ag er
def ine
EX T
Ġpr psoffsets
pect or
ins n
Co mp
Sele ct
Sele ction
fid p
ll er
we b
atch er
rout ing
Ġfrag ment
fix up
ĠDe viceManagementBackend
KERN EL
Ġview port
Ġspe c
VIE W
feren ce
) \
8 6
A ULT
C M
F AIL
I A
J ava
L LO
N s
R L
S he
U I
U S
U SER
_ ,
a b
a pe
a ccess
b k
f t
f in
f lag
g a
h z
h it
h od
i a
i mage
i ction
k hz
l x
l at
l lo
l ink
m ine
o op
p id
p lace
r c
r s
r x
r it
t ile
t otal
w o
Ġ B
Ġ ^
Ġ vi
Ġ read
Ġ other
in otify
se par
Ġt sc
at ing
Ġa bo
int rs
de bug
Ġp review
al ign
en u
ce iv
ma in
ma gic
ne ct
Ġf printf
un ion
un ction
ot er
ha s
ĠF AL
ĠF LD
op ipe
op code
ch ild
Ġb ad
Ġb yte
ad ers
Ġre du
Ġre ference
Ġd off
Ġimage s
ĠĠĠĠĠĠĠĠĠĠĠĠ ĠĠĠ
Ġv cpu
IN ST
Ġ+ +
up date
ic s
Ġcon tent
Ġg ra
Ġg roup
Ġde vice
Ġde legate
ver t
ĠP AGE
ip ipe
OP IN
msg pkt
ĠT SC
ĠA DD
Ġst ate
ta b
ta ble
ĠC h
wa ke
Ġop tion
frame s
res p
Ġcolor s
no re
HE LLO
conf ig
Ġhe aders
MA SK
ele ments
Ġdo es
BU S
IC ATION
Ġr c
Ġca p
sig no
Node Set
ex ception
De fault
IF ICATION
Ġmat ch
.. .
handle d
per f
Pa rams
num intrs
desc sz
Style She
Ġsi mulate
Ġra nge
NU M
SER VER
aut h
sa mple
ĠID R
Add Resource
PRE VIEW
Ġbu t
mar k
Rule s
ender Frame
Met hod
sy n
ĠTR UE
ud io
Ġdeter mine
iction ary
ĠFAL SE
Ġredu ce
StyleShe et
AddResource Path
' ",
; ;
A BLE
A CE
A udio
D S
D ele
D isp
D irectory
D OU
F P
F ILE
F AULT
I mage
K it
L a
L IN
L ib
M L
M agick
M enu
N ot
O DE
O ff
O MEM
P op
P hdr
Q U
R OU
U P
V ID
V ECT
W N
W indow
X OR
\ "
a ve
a em
c v
c dp
c lear
d up
e p
g nore
i ent
i bus
i alize
l ong
n u
p read
p ath
p date
r d
r up
s lots
t s
t ic
u id
w bio
w rit
x sh
z er
Ġ ;
Ġ LD
Ġ low
Ġ server
re en
se q
Ġ* ,
Ġt mp
Ġt able
Ġt han
Ġt wo
if def
at tr
Ġc m
Ġc name
or s
me thod
Ġa lig
int er
Ġp p
Ġp t
Ġp ending
ra nge
ur sor
it s
Ġthe re
ma pping
ne ed
un def
ca ndidates
id Finish
ha nd
Ġw ar
Ġw rite
is s
Ġin s
Ġin struction
Ġre move
il p
li c
UL O
IN US
Ġth rou
Ġse ek
Ġg fx
Ġe p
file sz
() .
fo re
Ġco uld
ĠD IV
Ġu dp
ip map
OP S
OP OR
OP AND
OP DI
OP ADD
OP XOR
Ġst ore
ta il
do wn
EN SION
EN OMEM
SI G
user space
wa ys
ph ys
ĠM A
ĠOn Success
Ġwith in
ET YPE
Print Settings
Ġ*) (
loc al
Ġh igh
Ġso cket
VER SE
Ġex p
Ġca pa
Ġas n
Ġch rome
IP E
IP LY
Ġelf hdr
lu gin
sp in
Ġfa ult
Ġfa iled
form ation
Ġcontext Node
NOT IFICATION
ins pector
OPM ULT
OPM OD
OPM INUS
inst all
UE ST
sha red
ĠELF MAG
Obj ect
Ġar g
lace ment
om ic
Ġdon e
Ġver sion
current frame
xp ctxt
Sc ript
Ġres ult
Ġtry another
Ġfid p
ĠNOT IFY
emp ty
Callbacks Success
BA SE
cce s
wh ile
Ġloc ation
)| (
Ġed ges
sso ci
seg v
stro y
EXT ENSION
separ ator
ceiv ed
OPIN VERSE
ĠADD IP
ĠCh unk
ictionary Value
Lib rary
Off set
VID E
VECT OR
aem on
zer o
Ġalig n
idFinish Printing
Ġthrou gh
OPDI VIDE
OPMULT IPLY
OPMOD ULO
' )
A CHE
B AD
C LA
D et
E M
F o
G V
M ed
N ULL
O K
P AT
S Y
S UN
T ING
T ab
U RE
U DP
U ETYPE
] ));
a ch
a ndle
a ils
b Kit
c la
c ipher
d raw
e pp
e ded
f ilp
g id
j or
j ect
k ip
k Set
m od
m map
n cmp
o ur
p ol
r l
r t
s buf
s ub
u mp
u bufs
v en
v ed
w indow
Ċ ĊĠĠĠĠĠ
Ġ 7
Ġ [
Ġ `
Ġ en
Ġ unt
Ġ entry
Ġ sign
Ġ REG
re nder
in struction
se d
Ġ( __
Ġ( ;;
st er
st em
st art
Ġt er
le ss
if t
at er
at omic
Ġc ib
Ġc hannel
or ity
he ader
de nt
Ġp os
Ġ" %"
al id
al led
en er
ce ive
Ġthe se
ma sk
ma ry
Ġf l
Ġf ree
Ġf ill
Ġf lip
Ġf ont
Ġf ilter
un ch
un li
Ġs ame
ing s
ca use
LE CT
Ġn on
Ġn mi
co mm
ut il
ut down
ss l
op en
con tain
ĠS e
ĠS t
ĠS kip
Ġin fo
Ġin put
Ġre g
Ġm ore
vi ous
ar g
Ġ1 0
ic y
Ġg uest
Ġe vent
th ing
pp en
ver s
ĠD idFinishPrinting
In it
ip ped
SE LECT
EN ABLE
ĠC heck
Ġbe cause
ĠM agick
ĠE xtension
Ġha ppen
AL L
AL UETYPE
Ġpa rams
ir q
context Size
Ġso ck
Ġso urce
Ġr un
Ġca ndidates
han ge
Node s
ĠV M
ĠV ALUETYPE
ĠWe bKit
mple te
SET TING
IF T
Ġno ise
net bk
cop ied
Ġcontext Obj
ord er
iv ate
Style Resolver
PR O
SH IFT
sha ke
Ġra di
Ġpre pare
PAGE S
col lect
viceMan ager
ap ti
Ġsh ould
ĊĠĠĠĠĠĠĠĠĠĠĠĠĠĠĠĠĠĠĠĠĠĠĠĠĠĠĠĠ ĠĠ
ĊĠĠĠĠĠĠĠĠĠĠĠĠĠĠĠĠĠĠĠĠĠĠĠĠĠĠĠĠ ĠĠĠ
Ġlo ok
Ġad just
osi tion
im it
IB us
contro l
Do cument
Page s
Ġsup port
ĠAdd File
ay be
medi a
Ġhas Ns
Ġevalu ation
Ġorigin ator
pri ority
CLA SS
Det ails
Med ia
SUN W
epp er
kSet ting
Ġunt il
Ġ(;; )
unli kely
contain er
SELECT OR
ĠhasNs Nodes
) -
) ((
1 0
A d
A IN
B J
C I
C S
C LO
C ursor
D is
D SC
E P
F LO
G R
H andle
I S
I T
M od
N a
P LA
Q u
R an
S h
S o
T he
T ext
V erify
W R
[ ]
b an
c d
c ha
c all
c cm
c ycle
d b
d aemon
e b
f size
f ul
f ter
f rag
g er
g off
g ree
i z
k en
l d
l er
m er
n y
n al
o g
p en
p ctxt
p mu
t x
u al
u sh
u dp
v b
x cap
x nh
y load
re cv
in d
in put
Ċĉĉ Ġ
se m
ĠĠĠĠĠĠĠĠ ĠĠĠ
Ċĉ ĠĠĠĠ
Ġ( *
er ation
st at
Ġt a
Ġt xp
le te
if ic
at ter
or ph
or ted
or iz
he llo
Ġa ut
Ġa void
Ġa ccess
Ġa ga
Ġa fter
int s
Ġp kt
al ing
Ġ- =
ra ints
Ġf lo
un lock
Ġi o
ret ch
Ġs c
Ġs u
Ġs y
Ġs len
rea s
Ġ& =
ro gram
pa m
pa que
pa yload
Ġw idth
Ġn ull
nd om
xt ract
ut ion
op tion
ch r
con nection
Ġin c
Ġin clude
Ġd i
Ġd ir
Ġd isp
Ġd cb
Ġd rop
et ch
ol icy
Ġl ater
Ġm od
li b
Ġv m
ST ATE
ic ate
Ġcon tain
Ġcon nection
Ġse nt
Ġse arch
Ġse lect
Ġe ven
Ġde gree
th er
ver se
ver ify
Ġco de
ĠO FF
ĠO BJ
ĠD o
ĠD DSC
Ġu len
Ġx pctxt
ĠP OL
ĊĊĉ ĠĠĠ
Ġo ver
Ġo wn
ci b
ĠA V
ĠA l
Ġst art
vm x
EN T
EN SSL
sh ift
ĠC AST
ht tp
Ġ(( (
ith er
Ġbe en
Ġbe fore
++ ,
qu al
put Method
ĠM ake
ĠE xtract
ĠOn ly
Ġop erator
old fs
res ult
Ġal ways
00 0
Print Preview
byte cnt
not e
Ġpa st
context Obj
OT S
Ġvalue s
UN K
ele ment
Ġh oriz
Ċĉĉĉĉĉĉ Ġ
VER IFY
Ġex pected
cap s
Ġsk ip
cur sor
Ġch ild
pr Res
De viceManager
MAT CH
out put
ĠG NU
Ġfa il
ĠTh ings
tmp db
Ġcop ied
INT R
MAG IC
ect or
Pa ss
Ġcan not
inst a
Ġcor rect
Ġcor rup
pro p
sr c
sr p
ĠR enderFrame
Ġrec len
Process ing
Ġver tic
ADD R
Hello Verify
ĠIn putMethod
Web View
SP ACE
ner ate
Ġlo op
rout er
dds caps
AP S
bit map
Ġsha red
rou te
ĊĠĠĠĠĠĠĠĠĠĠĠĠĠĠĠĠĠĠĠĠĠĠĠĠĠĠĠĠĠĠĠĠĠĠĠĠ ĠĠĠ
-- )
ork er
contro ller
bl ur
Ġrel offset
Execute Request
Tra ns
rel n
Ġcharact er
Ġid x
Java Script
Ġabo ut
Ġbyte s
Ġgra ph
wake up
Ġdoes n
syn c
Audio Input
Disp atcher
DOU BLE
writ el
iss ue
Ġexp ression
Ġcapa bility
ssoci ation
Ġpos sible
Ġradi us
Media DeviceManager
FLO AT
Na vi
PLA IN
Ran ge
ban ner
cha in
ĠOBJ ECT
ĠDDSC APS
Ġhoriz ont
HelloVerify Request
JavaScript ExecuteRequest
' ;
) (
) ];
. %
. ";
9 0
: \
A N
A ut
A ME
A pp
A UT
B P
B us
C R
C lear
C hannel
C IB
D id
D ON
F ree
F alse
G C
G NU
H e
H PAGE
H CI
I ZE
I TE
L V
L ist
L oop
M SG
M ODE
N o
N et
N OR
N ame
N AME
O ID
P U
P LE
P ipe
P STRING
P lugin
Q EM
S R
S MATCH
T ION
U SE
U RL
U pdate
V BASE
X T
] [
a si
a ct
a ded
b y
b lob
c msg
d s
d st
d ie
e c
e atures
f ra
f printf
f lip
g round
i bu
l se
l ite
l hs
m si
n ted
o w
p i
p os
p match
p ush
p orted
r v
r buf
r map
r ofile
s l
s len
s um
s ys
t en
t tp
u x
u ge
v if
w in
w ard
x ml
x ff
Ċ Ċĉĉĉ
Ċ Ċĉĉĉĉ
Ġ load
Ġ LISTEN
Ġ root
Ġ HelloVerifyRequest
re q
re r
re pare
re ceive
in ce
in ux
se nd
se nt
Ġ* *
er ge
st retch
on e
at ely
Ġc lock
Ġc lip
Ġc ipher
Ġc ycle
of s
or b
si d
si de
si ty
me nted
he ad
Ġa p
Ġa ct
de legate
de stroy
de rer
Ġp read
Ġp ort
Ġp ath
Ġp atter
Ġ" %
ct x
ct rl
Ġ- -
ra r
ra y
ra ft
ce l
it le
Ġthe n
ma g
ma jor
ne ss
Ġf v
Ċĉĉĉĉ ĠĠĠĠ
un ix
un map
Ġi gnore
Ġs g
Ġs l
Ġs pace
Ġs cm
pa cket
Ġn la
Ġn pages
lo aded
co mplete
te mp
te ger
err up
la ck
op y
op erator
con trast
ĠS IZE
Ġb l
Ġb it
Ġb et
ad just
Ġin flight
Ġre cur
Ġd l
Ġd v
Ġd if
ol ution
Ġl i
Ġm o
Ġm si
Ġm ult
ĠI O
ĠI t
ĠĠĠĠĠĠĠĠĠĠĠĠ Ġ
ĠĠĠĠĠĠĠĠĠĠĠĠ ĠĠ
Ġv ma
IN C
print k
print er
ST AR
Ġcon vert
Ġse q
Ġg N
Ġg o
Ġg bo
Ġde ta
Ġde fin
har pen
fo oter
Ġco m
ĠO P
Re ct
ĠD ictionaryValue
ĠP ACKET
In teger
so le
msg payload
ĠT o
ĠT OD
ĠT LV
ĊĠĠĠĠĠĠĠĠĠĠĠĠ Ġ
Ġo s
Ġo ssl
fa ct
fa ce
ĊĠĠĠĠĠĠĠĠĠĠĠĠĠĠĠĠ ĠĠ
Ġan not
read y
read ers
do c
data gram
um ber
ĠC ONF
ID B
SI Z
Ġchar s
Ġbe low
as n
RE Q
RE ACHE
che ck
ok en
wa re
Ġit s
ĠM SG
ĠM aybe
Ġha nd
Ġ2 0
Ġ2 4
Ġerr no
LO AD
Ġpa m
Ġpa ram
Ġne t
Con t
bo und
Ġr ight
Ġex ception
Ġca che
Ġas conf
(" \
ist er
Ġun aligned
LI B
fp tr
vel y
red icate
Ġtra ce
ĊĠĠĠĠĠĠĠĠĠĠĠĠĠĠĠĠĠĠĠĠĠĠĠĠ ĠĠĠ
Ġuser space
Ob server
Ġpr imit
AR C
Ġcount er
Hel per
mems lot
ĠPrint Msg
ĠPrint WebView
inst alled
mpl ing
TE ND
pro xy
Ġ/ /
ĠU n
Ġpoint er
we en
state m
Ġdon ote
MI SMATCH
SP ARC
clu ding
min or
Ġhandle d
addip hdr
Message Loop
NO WN
aut o
dir ty
can not
INVAL ID
For Print
node Tab
ĠNOT REACHE
Ser vice
block s
ste ad
device s
Ġput s
Ġcommand s
Ġus ing
Ġlevel s
ĠSE EK
disp lacement
Ġrel ation
BUF SIZ
CSS Default
UT F
ifi er
Ġcreate d
Ġinit ial
Ġline s
Ġparameter s
Ġspec ified
hit list
main ing
resp onse
NodeSet Clear
StyleSheet s
Dele te
La unch
LIN E
hand shake
Ġwar n
ĠMA X
sub region
Ġter min
ĠSe quence
vious ly
Ġrun ning
control len
GR AM
Qu ery
So urce
WR ITE
call chain
udp lite
Ġta sk
Ġmod ified
Ġdegree s
Ġown er
UNK NOWN
Ġcorrup ted
ĠInputMethod Library
Ġgraph ic
AUT O
QEM U
fra gs
repare Frame
Ġpatter n
operator s
Ġbet ween
Ġgbo olean
Ġdefin ed
ĠTOD O
ĠCONF IG
Ġprimit ive
ĠPrintWebView Helper
ĠNOTREACHE D
CSSDefault StyleSheets
% .
' ,
3 6
8 0000
A K
A U
A cces
B Y
B y
B ER
B lob
C B
C U
C LE
C lose
C OO
C AST
C opy
D AT
D ial
D GRAM
E d
E xt
E hdr
E BSD
E xtension
F O
F ID
F RE
F LAG
F LAGS
F unction
G UEST
I te
I mple
I LD
K IE
M T
N ew
N MI
O F
O r
O SI
P ER
P repareFrame
S e
S coped
T e
T h
T ree
T YPE
T AIN
U M
U ST
U CT
V SC
V alid
V ector
a ssociation
b n
b age
b code
c r
c ss
c name
c han
c lazz
d f
d op
d raft
e q
e v
e er
e valu
f l
f fe
g ing
g ation
g ress
h n
i an
i mary
k free
k addr
l s
l on
l pages
m it
m ing
n l
n of
n or
n offset
n mp
n def
n Image
o u
o und
o log
p ha
p th
r un
r ot
r ong
r unt
r ix
r ight
s notify
t or
t ree
u ally
x a
x b
x attr
Ċ ĠĠ
Ġ _
Ġ ON
Ġ lock
Ġ LEN
Ġ queue
Ġ BUF
Ġ signo
Ġ ...
Ġ \"
Ġ zero
Ġ reas
Ġ QEMU
re sid
in ode
in di
in sert
in clude
on ize
le nt
if ndef
at ive
Ġc r
Ġc buf
Ġc msg
Ġc allback
si bility
si lon
Ġa cces
de st
Ġp la
al c
ra ndom
ur ation
ur round
en s
en abled
Ġthe m
Ċĉĉĉ ĠĠĠĠ
ne st
ne ous
Ġf ix
Ġf ound
Ġf snotify
Ċĉĉĉĉ ĠĠ
un c
un OS
Ġi p
Ġi mp
Ġi mple
Ġi dent
ms lots
Ġs at
Ġs size
Ġs buf
Ġs ome
Ġs lot
Ġs sl
ca st
rea se
LE LONG
LE SHORT
ro ller
pa ss
pa pi
Ġw ork
Ġw ant
Ġw rong
Ġn offset
Ġn to
Ġn blocks
co re
te x
buf m
la ys
nt al
con d
ĠS HT
ĠS ave
ĠS ince
ĠS unOS
Ġb code
Ġb order
Ġin dex
Ġin dexed
Ġin formation
Ġin cluding
Ġre ply
Ġre ceived
Ġd t
Ġd ump
Ġd ds
et urn
ER Y
Ġm in
Ġm erge
ĠN on
ĠN OFFSET
ar bage
il y
Ġv ar
Ġ1 1
IN FO
OR Y
Ġth us
Ġth ose
up Menu
print able
ST AT
ST OP
ic ally
ic ient
Ġcon t
Ġcon side
io cb
Ġg arbage
Ġe ver
Ġe ach
Ġe qual
Ġe ffe
Ġde v
Ġde lete
Ġ(! (
th reshold
ME LONG
sc m
Ġis print
ver lays
ĠO K
Re sponse
Re lease
Re place
ĠD B
Ġx en
Ġx cap
mem set
ĠP epper
ĠP rogram
ip le
Ġoffset s
SE NT
SE AR
Ġo c
for ce
ci sion
fa sync
ĊĠĠĠĠĠĠĠĠĠĠĠĠĠĠĠĠ Ġ
Ġma n
Ġma ch
Ġma pping
Ġst yle
Ġst atic
do orb
rom atic
sh al
sh ould
SL OTS
ĠC on
PC I
RE SS
ok mark
qu i
ie s
ĠM UST
ĠOn Select
Ġnot ify
Ġnot es
Ġ' %.
Ġbuf size
Ġal so
Ġal ong
Ġal low
fs notify
CT RL
Print Pages
ance l
ĊĠĠĠĠĠĠĠĠĠĠĠĠĠĠĠĠĠĠĠĠ Ġ
context Node
Ġme as
const raints
loc ate
IO Vector
St ream
Ġne eded
val len
UN C
Con tent
ATE D
Ġh it
BU ILD
port Rules
Ġr v
Ġca ndidate
sig info
han ce
Ġdesc ript
DB G
ist ing
ĠV MA
ĠV erify
Ġstr ncmp
Ġstr ipped
Ġapp end
BE LONG
BE STRING
BE SHORT
app s
Ġch romatic
Ġname sz
Ġname space
Ġmem cpy
Ġwh o
Input Context
ĊĠĠĠĠĠĠĠĠĠĠĠĠĠĠĠĠĠĠĠĠĠĠĠĠ Ġ
ĊĠĠĠĠĠĠĠĠĠĠĠĠĠĠĠĠĠĠĠĠĠĠĠĠ ĠĠĠĠĠĠĠĠĠ
Ġat temp
event s
Ġpro ble
Ġpro xy
ader Fo
tmp client
Ġpr ofile
Ġpr imary
INT ERN
cm d
ff icient
mm u
DI SP
Context Size
Context Menu
Pa ste
MEM ORY
Co mmand
PE EK
sha dow
Ġmsg len
Ġold Context
Ġcor resp
cookie pkt
Ex ception
sr cu
uccess ful
ĠU DP
Ġsi lent
ĠELF CLASS
Ġtrans port
ek ed
ĠR CAST
ĠR eturn
Ġup date
Ġar gs
View portRules
use d
ĠL oop
ĠL inux
ĠRe lease
ren derer
ADD RESS
MI B
On UI
Ġback ground
STR UCT
Web Frame
Ġad apti
Ġhandle s
osi te
osi tor
sa fe
Is Valid
Ġle a
Ġfrag len
lay er
lay ers
Ġres olution
REG EX
CON TAIN
CON STRUCT
Op en
ĠX HCI
mar shal
Ġsa mpling
Ġsha dow
Ġinter nal
Ġnote count
trans port
Rule Set
pre pare
Device Info
Do c
Data Directory
mu tex
Ġloc al
buff ers
ĠSE GV
Ġmax Pos
Ġneed s
elf cla
Ġob ject
Ġob viously
And View
Tra ck
nr bufs
ĠW hen
ifi able
Ġcharact ers
lar ge
ĠSet State
Ġdis ca
Ġext ra
FAIL URE
lat ten
link ing
Ġstate less
Ġoption s
NUM BER
FILE NO
Pop upMenu
QU ERY
nu mslots
ĠLD X
Ġcm len
inter p
need s
Ġins n
ipmap s
ipmap count
inspector Window
Offset Type
SY SENT
Ġ` %
ener ate
SETTING S
collect ViewportRules
Ġlook up
kSetting He
Dis abled
Sh ould
orph olog
Ġaga inst
pam h
option s
chr onize
Ġdi stance
ĠPOL L
Trans action
Navi gation
Aut h
DON E
Free BSD
Net BSD
ibu te
mag error
Ġbl ur
Ġmult iple
STAR TEND
ĠOP ENSSL
fact ory
Ġannot ate
REQ UEST
Ġtermin ating
80000 000
Acces sibility
BY TE
COO KIE
Dial og
Ed it
FRE EBSD
GUEST DBG
Imple mented
OSI TION
Te st
Th read
VSC SI
dop hn
nof id
runt ime
ĠQEMU IOVector
indi rect
Ġcmsg hdr
Ġpla in
ĠNOFFSET S
STAT S
Ġconside red
Ġeffe ct
Release Object
SEAR CH
doorb ell
Ġdescript ors
Ġchromatic ity
Ġattemp ted
aderFo oter
INTERN AL
DISP OSITION
Ġcorresp on
Ġsilent ly
CONTAIN ER
elfcla ss
PopupMenu Ite
SYSENT ER
kSettingHe aderFooter
orpholog y
! !
! ':
" ))
2 4
3 86
3 90
< ':
= ':
> ':
A t
A ct
B e
B el
B ase
B LO
C L
C AND
C all
C LI
C urrent
C AP
C OM
C hange
C ancel
C ATED
D O
D Y
D ET
D raw
D ictionaryValue
E C
E ND
E val
E vent
F ix
F und
F eatures
G H
G IN
G ET
G FP
G enerate
H M
I R
I g
I ST
I SS
J S
K e
L L
M o
M AL
M SR
N N
N R
N ON
N ING
N ECT
N ative
O ut
P ro
P ost
P TR
P rop
P lat
P IPE
P osition
P epper
P olicy
P rofile
P df
P eer
Q W
Q DATE
Q LDATE
R D
R un
R AND
R enderFrame
S N
S U
S V
S W
T K
T ER
T OK
T oken
U ser
V er
W a
W AR
_ ))
a m
a in
a le
a il
b p
b order
c off
c ing
c lip
d is
d ph
d gram
d ware
e ach
f lo
f ig
f ill
f lu
f irst
f unction
f unc
g u
h ing
h igh
h uge
i ver
i que
j o
j s
k er
k ill
k Default
m b
m id
m alloc
m copy
m cnt
m ily
n ce
n la
n ull
o c
o ch
o od
o wn
o we
o magic
o paque
o verlays
p b
p ose
p goff
r ded
s b
s can
s cale
t k
t xt
t state
t pc
u me
u ble
v ing
v sc
w ord
w ise
w idth
w insta
z alloc
Ċ ĊĠĠĠĠĠĠĠĠĠĠĠĠĠĠĠ
Ġ la
Ġ har
Ġ 32
Ġ url
Ġ routing
Ġ large
re ction
re maining
in c
in ation
in formation
Ċĉĉ ĠĠĠĠĠĠ
se ed
se quence
se lf
se lect
ĠĠĠĠĠĠĠĠ ĠĠĠĠĠĠĠĠ
er ha
st ation
st all
st ination
on gs
Ġt ile
Ġt sk
Ġt ree
Ġt ag
Ġt mpl
Ġt ake
le ction
at ched
Ġc txt
of t
or ary
si s
he nt
he mat
he ight
Ġa ss
Ġa mo
int ing
int errup
ge nerate
de n
de s
Ġp c
Ġp art
Ġp match
Ġp goff
Ġp olicy
Ġp redicate
Ġp papi
Ġ" )
Ġ" +
Ġ" -
Ġ" ";
al k
al pha
ur i
ur face
en e
en able
en sity
Ġthe y
Ġf it
Ġf ew
Ġf ind
Ċĉĉĉĉ Ġ
un ched
ret ry
Ġs p
Ġs witch
Ġs low
Ġs cale
Ġs harpen
ing le
rea ms
Ġ& (
id r
LE D
LE ID
ro id
ro ve
ĊĊ Ċ
bu t
pe eked
Ġw on
Ġw insta
Ġn off
co ding
str ncmp
str ipped
is m
ĠF ST
ĠF AIL
err no
la ss
la neous
op er
nt p
con nect
con vert
ĠS o
Ġb lob
Ġb lack
ad apti
ate s
Ġin et
Ġre ct
Ġre set
Ġre use
Ġre qui
Ġd id
Ġd ue
ER P
ser ve
Ġm l
Ġm m
Ġm ode
Ġm ight
ĠI s
ĠI ND
ĠI gnore
ĠI Bus
ĠN o
ĠN ote
ĠN umber
an s
Ġv alid
Ġ1 0000
tr ic
tr ibute
Ġ! (
ame ntal
up port
ic ation
Ġcon ta
Ġcon nect
io us
Ġg fn
Ġg tk
Ġe ither
Ġde fault
Ġde stination
file name
AT TR
ME DI
new p
new ContextSize
sc ript
sk ip
ver ifier
Ġco re
ĠO per
ĠO ther
Re ceived
ĠD isp
Ġu space
Ġu dph
ĠP P
ĠP a
ĠP lugin
ĠP VSCSI
ĠP erha
In valid
Ġel mcnt
Ġwe b
SE ND
SE GV
OP ER
OP EN
msg len
ĠT ry
ĠT XT
Ġo paque
for ward
age d
sg list
ĠA s
ĠA ll
ĠA ny
Ġma in
Ġma ster
Ġst at
Ġst and
Ġst ream
do mid
EN ER
data Ad
sh info
sh utdown
ĠC A
ĠC an
ĠC PU
ID ATE
Ċĉĉĉĉĉ ĠĠĠĠĠ
as sign
RE P
RE CT
RE AD
che s
Ġfor ce
Ġk mem
Ġ% .
ĠM essage
Ġcol lection
lock ed
ĠE rror
Ġprint er
Ġprint ing
ĠOn Set
ĠOn JavaScriptExecuteRequest
HAND SH
Ġop s
Ġge nerate
ali as
Ġwith out
Ġcolor space
Ġ' !':
Ġ' <':
Ġ' =':
Ġ' >':
AL LED
Ġal ready
LO C
Frame OnUI
CT ED
Print er
AD R
Ġpa ss
Ġfile s
Set String
ter min
Ġme di
Ġme chan
Ġme ans
()) );
St op
Ġhe llo
Ġout put
UN T
UN EX
UN INST
Ġdo wn
Ġdo cument
bo ard
bo okmark
Ġh old
Ġh ost
Get Boolean
Get App
tra p
ust om
Ġr ot
Ġadd ip
Ġex it
Ġex pect
Ġex prRes
fd max
Ġas sert
ist ics
ti al
ti ble
ĠV LOG
default Style
BE ID
DE PRE
DE CL
ex pected
ex prRes
fe rent
Ġun ion
Ġun its
Ġun less
Ġun installed
cont ent
pr Op
pr ofile
pr ivate
ERROR S
Ġwh ite
ys cale
Ġerror s
ator s
Ġno w
Ġmat rix
Ġmat hemat
Ġmat ches
Input Method
ĠG FP
ĠG URL
ĠG DataDirectory
net dev
Ġfa ils
ted Print
EX EC
Ġpro per
Ġcontext Size
.. ..
dp i
ob server
INT ERP
cm len
ff ine
Ġcookie len
DI RT
DI RECT
Pa rent
PE CTED
cs um
pro gress
sr pid
ĠU pdate
ĠELF CORE
Ġtrans parent
bad cap
Ġar bit
ap i
rip tedPrint
ĠRe set
ĠRe ad
ĠRe store
MI ME
On Message
To Current
ĠIn it
ĠIn stead
IndexedDB Dispatcher
Ġany thing
Web Node
Web UI
AI LS
TR UNC
Ġad ded
Ġpage s
Ġuse s
Ġfd num
Ġfd max
Ġrequest ed
sign al
AP PLE
Sc aling
Sc riptedPrint
Ġle ss
Ġle ft
lob al
extension s
CON NECT
Op Eval
ĠX ML
Ġsa fe
Ġsa mple
Ġsa ys
Ġinter p
Ġcomp ression
ĠThe re
trans action
-- ;
From WebUI
Ser ver
block ing
emp orary
fix ed
pre fixed
ĠH ttp
ste ps
Ġprocess ing
ĠST X
color s
(! (
BA NN
Data base
Preview Document
sy stem
Ġsup ported
ĠSE Q
ĠAdd Directory
Create Boolean
line s
xmlXPath NodeSetClear
Ġclear pkt
sso c
Ġlink ed
ĠxmlXPath ReleaseObject
PRINT ER
Boolean Type
HT ML
kError Service
point er
command s
ĠSIG BUS
Ġline cnt
Ġmessage s
UNIX CB
pri mary
Comp ositor
Comp OpEval
Ġviewport StyleResolver
Ġspec ific
CM SG
Java script
fin d
Ġvi rt
Ġabo ve
ĠFLD X
child ren
Ġbyte cnt
Ġreference s
mark ed
syn chronize
Dele gate
Magick False
QU AD
ROU TE
ROU TER
ialize d
rd ms
Ġtmp client
Ġcm fptr
hand ler
Ġwar ning
lic it
SIG N
phys mem
Ġhigh light
Ġsocket s
Ġarg u
CallbacksSuccess IDB
PAT H
mod util
Ġen hance
Ġsign al
open ed
ĠSt yle
Ġreg ion
Ġreg ister
Init PrintSettings
ENABLE D
ĠMagick BooleanType
collect Features
IBus Con
Mod ifiable
eration s
ific ation
Ġaut omagic
Ġio v
Ġsc reen
Ġinc rease
Ġdir ty
lib rar
Ġcontain ed
ĠAV ERROR
note count
ĠRenderFrame Impl
ĠRenderFrame Observer
Ġvertic al
Ġvertic ally
Ġhorizont al
Ġhorizont ally
NAME SPACE
Update PrintSettings
act ive
lse ek
sys log
Ġap parent
cel laneous
loaded Extension
Ġbit map
Ġrecur sion
Ġdif ferent
Ġli kely
Ġgo ing
ĠTLV s
Ġhand l
LOAD ED
Cont roller
bound s
Launch er
ĠInputMethodLibrary Impl
AK E
Se ssion
nor ing
ou gh
run ner
right ness
Ġqueue s
Ġ... ]
Ġ\" %
Ġreas on
alc ulate
ens ation
Ġimp rove
Ġident ify
Ġmin Pos
Ġoc cur
Ġwho le
Ġproble ms
Ġadapti vely
AndView ForPrint
Ġdisca rded
Bel ongs
CAND IDATE
Call Javascript
CLI ENT
DY N
DET AILS
Fix ing
Fund amental
Ig noring
ISS UE
MAL LOC
Plat form
QW DATE
RAND OM
TOK EN
Ver sion
Wa it
WAR NING
flu sh
owe ver
vsc si
Ġhar dware
Ġass ume
Ġamo unt
ĠFST X
adapti ve
ĠIND IR
Ġconta ins
MEDI A
ĠOper ators
Ġudph dr
ĠPerha ps
dataAd dr
HANDSH AKE
termin ated
Ġmechan ism
UNEX PECTED
DEPRE CATED
DIRT Y
OnMessage Received
ToCurrent Thread
BANN ER
CreateBoolean Value
Ġautomagic ally
librar ies
loadedExtension Info
Belongs ToCurrentThread
CallJavascript Function
Fundamental Value
' ve
( %
) ",
, "
. \
. __
/ /
1 2
3 0
3 1
3 4
4 00
6 0
6 34
7 0
: //
= =
A C
A S
A V
A b
A r
A ge
A SE
A ction
A SL
A ll
A ler
B I
B N
B ACK
B locked
C Y
C or
C ut
C ss
C ERR
C lient
C ore
C ap
C CE
C OL
C haract
C ODE
C ACHE
C ALL
C PU
C INFO
C ustom
D F
D U
D IN
D IO
D aemon
E Q
E S
E V
E LE
E nd
E AG
E IO
E IP
E FAULT
E INTR
E OF
F C
F N
F id
F ly
F lags
F ill
F ALL
F ind
G TK
G FN
H t
H w
H ttp
I d
I ME
K M
K PRO
L o
L en
M P
M ode
M SI
M IP
M ob
M atch
M iss
M arg
M aybe
M ipmaps
N r
N SI
N hdr
N ull
N umber
O f
O WN
O COL
P P
P ILE
P RP
P oint
P AR
P OL
P refs
P ref
P rogram
P redicate
P board
P DU
R G
R K
R at
R ed
R AG
R out
R ender
R UNT
S F
S n
S te
S end
S ST
S hdr
S wap
S Info
S and
S OL
S urround
S INFO
T P
T r
T SC
T EXT
U W
U s
U ne
U nd
V is
W L
W or
W INST
W orker
X Y
X ML
X PTR
X ATTR
Y BE
[ %
[ -
] ),
_ ;
_ [
_ ));
a ic
a ult
a mple
a mma
a ssoc
b s
b or
b el
b ers
b lack
b ian
c c
c g
c l
c at
c ret
c len
c lean
c hannel
c hange
d q
d y
d er
d le
d ro
d ither
d one
e o
e fficient
f u
f w
f Data
f inish
f ilter
f stat
f latten
g le
g ra
g ref
h ood
i er
i ce
i buf
i mp
i et
i as
i able
i alias
k regs
k Preview
k ref
k uid
k gid
l p
l gN
m on
m is
m ul
m get
m du
m ize
m fn
m medi
m debug
m ipmapcount
m orphology
m fw
n am
n badcap
o la
o res
o Fill
p t
p st
p op
p ress
p write
p Op
p ia
p ts
p vscsi
r k
r p
r u
r ing
r ate
r cu
r ib
r iver
s w
s pa
s coped
s par
s harpen
s uccessful
s urface
t un
t te
t ps
t xp
t Image
t lse
t itle
t oken
t Dialog
u te
u buf
u ch
u SE
u ff
u lar
u des
v q
v w
v ol
v as
w ith
w orker
w atched
w alk
x c
x d
x f
x x
x en
x im
x pected
x Flags
y ze
y et
y stem
z u
z copy
Ġ 6
Ġ J
Ġ ->
Ġ ĊĊ
Ġ UN
Ġ ĊĉĉĉĉĠĠĠ
Ġ getu
Ġ job
Ġ serial
Ġ BUS
Ġ LIB
Ġ layers
Ġ UNIXCB
Ġ KM
re ge
re size
re ed
re cur
re store
re lease
re clen
in et
in um
in dexed
in ary
se s
se qu
se ek
ĠĠĠĠĠĠĠĠ ĠĠĠĠĠĠĠĠĠĠ
Ċĉ Ċ
Ċĉ ĠĠ
Ġ( ));
er t
er Offset
er nal
st ack
st ream
st raints
on ent
on At
on Fly
Ġt ex
Ġt itle
Ġt ls
Ġt emporary
le t
le ments
if o
ĊĠĠĠĠ ĠĠ
at al
Ġc p
Ġc re
Ġc ent
Ġc all
Ġc han
Ġc dp
Ġc lose
Ġc ub
Ġc rx
Ġc ursor
Ġc hange
Ġc sum
Ġc lass
or ient
si ve
si bl
me ssage
me tic
me thing
he d
he ther
he lp
Ġa rea
Ġa vi
Ġa ble
Ġa round
Ġa ssoci
Ġa ssociation
Ġa ffine
ge d
ge n
de l
de cipher
de lete
de pth
Ġp e
Ġp ot
Ġp id
Ġp op
Ġp ar
Ġp ci
Ġp as
Ġ" \
Ġ" ((
ct or
al d
al t
al low
al Aler
al yze
ra p
ra ph
ra ster
off s
en ded
en cipher
set val
set group
set uid
set gid
it or
it ed
it Navigation
Ġthe ir
ma n
ma ch
ma ke
ma ster
Ċĉĉĉ Ċĉĉ
Ċĉĉĉ ĠĠĠĠĠĠ
ĊĠĠĠĠĠĠĠĠ ĠĠ
ne cess
Ġf ol
Ġf unction
Ġf eatures
Ġf latten
Ġf reed
Ġf ifo
Ġf atal
un ame
un comm
un installed
un used
un marshal
un ication
Ġi ss
Ġi mpl
Ġi mmedi
ms lot
Ġs pa
Ġs offset
Ġs che
Ġs lots
Ġs ub
Ġs rc
Ġs nmp
Ġs urround
Ġs uccessful
Ġs oft
Ġs ingle
ot h
ot ion
ot ect
ing ID
ing Selection
ing Rules
ca ndidate
ca rd
rea ched
id t
id den
id dle
LE DATE
LE STRING
LE LDATE
LE DOUBLE
LE FLOAT
ro ke
ro ll
ro ken
ro ker
pa x
pa per
pa inting
/* *
ĊĊ ĠĠ
ha sis
pe ar
pe ll
Ġw or
Ġw bio
Ġw ould
Ġw ay
Ġw ell
Ġw ave
Ġw hether
offset reg
Ġn b
Ġn h
Ġn s
Ġn an
lo de
lo op
ck le
co m
co al
co ver
te ct
is print
ĠF or
ĠF rom
ĠF ree
ĠF IX
ĠF our
ĠF ault
err p
ut able
nt tab
nt Or
con struct
con sole
con cat
ĠS F
ĠS pe
ĠS igh
ĠS tring
ĠS upport
ĠS ystem
Ġb und
Ġb rightness
Ġb inary
Ġb oth
Ġin sert
Ġin otify
Ġin stead
Ġre d
Ġre si
Ġre ce
Ġre size
Ġre source
Ġre sp
Ġre pre
Ġre lease
Ġre place
Ġre main
Ġre ject
Ġre ceive
Ġre maining
Ġre cover
mp ty
mp rot
Ġd ig
Ġd ist
Ġd river
ER M
ol s
ol y
ol ation
ol ated
Ġl pages
Ġl gN
Ġl ight
Ġl imit
ser ved
ser ving
ed st
Ġm y
Ġm ine
Ġm ost
Ġm alloc
Ġm ipmaps
Ġm orphology
Ġm iddle
vi sible
vi rt
vi olation
ĠN M
ĠN UL
ĠN MI
ĠN ow
ĠN UM
ar ting
li ce
an not
Ġto ken
Ġv a
Ġv b
Ġv if
Ġv host
Ġv zalloc
IN ET
IN FORMAT
IN IT
IN ERRORS
IN DIRECT
OR D
OR BE
Ġint errup
Ġint ensity
Ġth ru
end point
end Selection
ic ated
gne tte
ON LY
io mmu
Ġse cond
ent ial
Ġg id
Ġg iv
Ġg ive
Ġg lobal
Ġg amma
Ġg nttab
Ġe b
Ġe asi
Ġde c
Ġde f
Ġde bug
Ġde tail
Ġde act
Ġde pth
Ġde cision
Ġde tect
th at
th read
ME TR
ME DATE
ME LDATE
sc reen
Ġis n
Ġis qu
Ġco mple
Ġco mm
ve Range
ĠO LF
Re set
Re load
Re ply
Re fData
ĠD IE
ĠD ump
Ġu id
Ġu gfn
Ġx ml
ĠP C
ĠP F
ĠP rocess
ĠP rofile
In Is
In sert
In New
In stall
Ġel ap
SE C
SE D
OP ENSSL
so mething
msg type
msg seq
ĠT STATE
for tun
get app
fa st
fa mily
name s
name size
name space
ĠA F
ĠA void
ĠA SN
ĠA NSI
Ġma sk
Ġma ps
Ġma jor
Ġma ny
Ġma rk
try elf
try another
Ġst ack
Ġst ill
Ġst ale
Ġst ores
Ġst uff
Ġst roke
Ġst arting
Ġan gle
Ġan alyze
ta sk
do ut
EN OTS
sh ot
sh ort
um bn
SL StyleSheet
ĠC reate
ĠC OM
ĠC CM
ĠC MSG
Ġlong er
ht tps
Ġ(( *
ith metic
Ċĉĉĉĉĉ ĠĠĠĠ
Ġbe ing
Ġbe gin
as ml
as sert
RE COR
Ġfor k
Ġfor m
Ġk e
Ġk ns
Ġk no
Ġk Pipe
Ġk iocb
Ġk malloc
wa ve
ite s
Ġit self
Ġit erations
od fill
ĠM IN
ĠM SI
ĠM ipmapcount
lock s
ĠE SP
ĠE INTR
Ġprint able
ĠOn Co
ĠOn Text
ĠOn Copy
ĠOn Replace
ĠOn Paste
Ġop ti
Ġop eration
Ġnot Implemented
old Context
Ġge te
Ġ' ^
AL IG
Ġ2 5
Ġor ient
Ġor der
Ġbuf s
Ġal ter
Ġal locate
fs State
fs Fid
fs PDU
ml Dialog
Print f
Print Scaling
no ise
no block
Ġon to
SC AR
ir l
OT OCOL
ke y
Ġme tric
Ġme mslot
()) )
()) ))
mat te
Ġvalue Pop
us ing
Ġhe ight
Ġhe ld
Ġhe nce
Ġne st
Ġne ar
Ġne ver
Ġne igh
MA R
MA YBE
UN LOADED
Ġdo ing
Ġdo uble
Con nect
Con sole
Con straints
bo ss
bo xFlags
Ġh state
Ġh uge
Ċĉĉĉĉĉĉ ĠĠĠĠĠĠĠĠ
Ċĉĉĉĉĉĉ ĠĠĠĠĠĠ
Get String
Get Document
Get Integer
Get Session
IC S
IC Y
port s
port StyleResolver
able Selection
list en
Ġr bio
rect ype
Ġex ist
Ġex ec
Ġex prOp
Ġex change
fd s
fd num
os aic
Ġca ched
Ġca use
sig bus
sig segv
Ġas sign
Ġdesc rib
(" %
Node Or
ist ic
ti mer
ĠV iew
Ġstr len
Ġstr tab
Ġstr dup
BE DATE
BE MAP
BE LDATE
BE DOUBLE
BE FLOAT
BE GIN
DE V
DE LE
DE FAULT
ex ped
ex ec
Ġun map
Ġend s
Ġend point
app end
cur buf
Ġmem chr
reg error
reg ister
IP V
pr io
pr iv
pr psoffsets
Ġcase s
De stroy
Ġnew buf
und ary
Ġwh at
ag ain
fer red
Ġnum bers
Ġset s
Ġset xattr
Ġtra verse
ity Position
ĊĠĠĠĠĠĠĠĠĠĠĠĠĠĠĠĠĠĠĠĠĠĠĠĠ ĠĠ
ĊĠĠĠĠĠĠĠĠĠĠĠĠĠĠĠĠĠĠĠĠĠĠĠĠ ĠĠĠĠĠĠĠĠĠĠĠĠĠĠĠĠĠĠĠĠ
di rectory
gic al
ĠG ui
ĠG ENER
ĠG raph
Ġfa ilure
base reg
ps alt
ĠTh row
EX IST
style Tree
low ing
TH ROU
Ġpr otect
INT E
mm itNavigation
ĠBIO s
static ally
Ġcookie s
DI E
DI SCAR
just Selection
value Pop
Ġare n
Context Ptr
ink ing
ink age
Ġcan vas
ĠPrint Prop
sock et
ION W
rag onFly
Co unt
Co okie
PR IV
PR OTOCOL
Ġmsg hdr
Ġcor rel
Ġcor rection
server hello
Ġone ed
Ex isting
Value Edit
pro xim
sr psalt
ĠU M
Ġsi mp
Ġra ndom
Ġpre ce
Ġpre fs
Ġpre vious
Ġpre serving
Ġpre ferred
Ġper cpu
Ġper form
ild Frame
Ġsection s
SIZE S
ek Blob
ĠR ender
ĠR FC
Ġar ray
Ġar ithmetic
Ġnode s
ĠDTLS v
Process Handle
Process Launcher
ap shot
mo ved
ĠL inking
ĠRe source
Ġver ify
LA Y
On Error
On PrintPreview
On Close
To String
To UTF
To Find
To Console
cb s
Ġsh info
Ġsh num
Ġsh utdown
IndexedDB Ke
ĊĠĠĠĠĠĠĠĠĠĠĠĠĠĠĠĠĠĠĠĠĠĠĠĠĠĠĠĠ Ġ
Ġkernel space
TR AP
Ġ~ (
Ġlo gical
Ġtext ures
Ġad dr
CH AN
Message Event
Message ToConsole
aut hent
Ġ5 4
Add Instance
Add MessageToConsole
Is E
Is Modifiable
im um
Ġle t
Ġframe s
can cel
cket Stream
comp at
comp ression
comp onent
lay InNew
0000 0
For mat
For Test
Op ener
bil ites
client vers
node Nr
node setval
ĠX PATH
Ġbu g
Ġbu ild
inis hed
Ġinter pol
Ġinter face
Ġcomp osite
Ġcomp ensation
Ġcomp ute
ĊĠĠĠĠĠĠĠĠĠĠĠĠĠĠĠĠĠĠĠĠĠĠĠĠĠĠĠĠĠĠĠĠĠĠĠĠ Ġ
Printing NodeOr
trans form
trans parent
AM D
AM S
AM IC
From Existing
Ser viceManagement
Ser ialized
emp hasis
ĠH PAGE
ĠH owever
deta ch
ĠST ATE
ĠST DOU
ĠST DIN
ATION QUERY
ĠDe bian
Ġus b
Ġus age
Ġmake RuleSet
State Request
Device s
Device RefData
Ġrecord s
08 00000
File Exception
Met r
Un load
Un select
Un loadedExtensionInfo
cce pt
gin Ht
mu sh
wh ite
wh ich
Ġlast buf
Ġscoped Resolver
cache p
Ġmax opened
Ġmax imum
Create Process
Create PreviewDocument
DD SInfo
bl ue
disp lay
line cnt
ose cond
Ġed ge
Ġclient s
Ġclear ly
Ġcheck sum
Ġph num
Ġlink ing
ĠxmlXPath NodeSetClear
ĠxmlXPath CompOpEval
ĠTR ACE
Ġob served
MAP ERR
ĊĠĠĠĠĠĠĠĠĠĠĠĠĠĠĠĠĠĠĠĠĠĠĠĠĠĠĠĠĠĠĠĠ ĠĠĠ
ĊĠĠĠĠĠĠĠĠĠĠĠĠĠĠĠĠĠĠĠĠĠĠĠĠĠĠĠĠĠĠĠĠ ĠĠĠĠĠĠĠĠĠĠĠĠĠĠĠĠĠĠ
Execute No
And Delete
And PrepareFrame
And Match
CSS Insert
Failed Navigation
HT TP
String List
kError Request
kError ServiceManagement
ĠW ith
ĠW ell
ĠW orker
rel offset
seg ment
ĠSIG IO
ĠSIG SEGV
ĠSIG TRAP
Ġinit ialize
Ġdis cret
Ġext ract
Ġext ernal
Ġevalu ate
ĠOS es
wait ing
wait pid
Ġorigin al
Comp osition
Select ors
Select PopupMenuIte
Selection Ext
fixup s
Ġspec ify
CM D
ab ly
ga mma
rx Install
total frames
ĠB RK
Ġvi a
Ġvi sible
ics Context
Ġcontent s
Ġgra yscale
Ġdevice s
Disp layInNew
La unched
Magick OffsetType
Magick Tr
Not Fo
Not Implemented
Not ification
UP DATE
ep silon
rup tImage
ts vw
writ ers
lic ate
Ġep silon
Ġep och
fore Unload
SIG BUS
SIG PIPE
ĠMA C
ĠOnSuccess Cursor
ĠOnSuccess IDB
Ġexp licit
Ġcapa bilites
inspector View
install er
Object Ptr
Script Value
CallbacksSuccess Cursor
Ġlocation s
segv gu
ĠChunk s
Offset s
Ġalign ment
Tab Page
pol l
Ġter ms
Ġfill ing
Ġnon printable
comm it
ĠSt ack
Ġevent s
vers major
ĠMagick False
ĠMagick OffsetType
ĠExtension Prefs
Ġsock addr
PRO CINFO
PRO XY
IBus InputContext
Pages ForPrint
Ad justSelection
CLO CK
CLO EXEC
CLO SED
Dis own
EP IPE
EP BP
EP ERM
Mod alAler
Sh utdown
cd l
frag off
ual StateRequest
recv msg
Ġaut h
Ġaga in
Ġflo p
Ġflo ating
Ġsc ene
Ġsu ch
Ġsu cce
Ġsy stem
Ġsy mb
Ġinclude s
Ġdisp lay
Ġdisp lacement
Ġdcb nl
etch er
lib rary
Ġvm x
Ġselect ors
ĠPOL LIN
ĠAl ways
ĠAl locate
Ġchild ren
INTR S
Ġcorrect ly
srp type
srp verifier
Trans form
Ġcharacter istics
Navi gate
AN Y
Did Update
Did GetDocument
No Content
NOR M
NOR ET
PLE TE
Pipe Name
Plugin Instance
Ġload s
sent ation
stretch ing
Ġcycle s
Ġact ivate
Ġact ually
delegate d
Ġli ke
Ġmo jo
Ġdeta ched
Ġdeta ils
Ġcom pare
ĠTo ols
Ġhand shake
Cont inue
Ġexception s
ĠUn fortun
SPARC V
Ġrelation al
Launch InputMethod
ĠMAX SLOTS
ĠMAX INTRS
AU TH
AU DIO
By Charact
CU R
CU BEMAP
CLE AR
Close d
DAT A
Ext endSelection
PrepareFrame AndViewForPrint
Scoped Handle
evalu ate
evalu ation
mit ted
rot ate
ĊĠĠ ĉ
Ġacces sible
Ġacces sed
nest ed
Ġfix up
Ġimple ment
Ġimple ments
Ġsat uration
Ġwork ed
Ġnto hs
Ġnto hl
Ġindex es
Ġdump s
Ġvar ious
Ġvar iable
Ġcont inue
Ġever y
ĠPepper MediaDeviceManager
ĠProgram mer
ĠProgram ming
Ġmach ine
ĠCon tent
ĠOnSelect PopupMenuIte
Ġ'%. *
Ġallow ed
Ġmeas ure
Ġhit list
ĠVMA s
Ġappend s
ContextMenu Action
ContextMenu Closed
ĠoldContext Node
ĠoldContext Doc
Exception Info
Ġlea st
DeviceInfo Ptr
Track er
Track Settings
Should DisplayInNew
ĠPOLL RD
Transaction Callbacks
Auth Token
Accessibility Mode
Edit ableSelection
Ġcorrespon d
Ġcorrespon ding
Act iv
Be foreUnload
BLO CK
DO ORBE
Draw Constraints
Mo veRange
NON BLOCK
Native Library
Pro xy
Post MessageEvent
Pepper MediaDeviceManager
Pdf Frame
Run ModalAler
SU CCE
SV R
User Age
border color
dis card
huge page
interrup tible
connect ed
ĠSo cketStream
Ġrequi re
ĠOther wise
ĠDisp atcher
ĠPlugin Instance
Ġstand ard
REP LY
Ġkmem dup
Ġ%. *
Printer Query
ADR ERR
Ġpass word
Ġmedi a
UNINST ALLED
GetApp Info
trap nr
Ġrot ate
Ġproper ty
ĠUpdate Frame
Ġarbit rary
ĠInit ialize
CONNECT ION
Ġinterp ret
Server Query
Ġvirt ual
rdms r
SIGN ED
Ġargu ments
ĠStyle Resolver
InitPrintSettings AndPrepareFrame
collectFeatures To
IBusCon fig
Ġapparent ly
Ġhandl ers
Ġoccur red
DYN AMIC
Platform AudioInput
Version Change
634 7
AC CERR
Ab ort
Ar ray
ASL R
BI M
CY CLE
Cor ruptImage
CALL BACK
Custom ContextMenuAction
DF T
EV ENT
ELE M
End Of
EAG AIN
EOF Blob
FALL THROU
KPRO BE
Lo ginHt
MSI X
MIP MAP
Mob ile
Miss pell
Marg ins
PRP SINFO
Point er
PAR AM
POL ICY
Pref etch
Rat io
Red o
Rout ingID
Render PagesForPrint
RUNT IME
Sn apshot
Ste pOp
SST EPBP
Swap Out
Sand boxFlags
Surround ingSelection
TEXT URE
Us age
Une xpected
Und o
Vis ualStateRequest
Wor ld
WINST ATIONQUERY
bs d
bor hood
cg rp
cl ut
dq d
dy nam
dro ps
efficient s
iet f
mdu mp
mfw rap
ola roid
pst reams
pwrite v
spa cing
tlse xt
watched Selectors
ĠUN SIGNED
ĠLIB XML
rege x
recur sion
sequ ent
onAt tribute
Ġtex el
Ġcent er
Ġcub e
Ġavi o
Ġassoci ate
Ġpot ential
Ġpar tial
Ġpas sed
Ġ"(( %"
setgroup s
necess ary
Ġfol lowing
uncomm onAttribute
Ġiss pace
Ġimmedi ately
Ġspa n
Ġsche me
Ġsub sequent
Ġsoft ware
painting Disabled
Ġnan osecond
ĠFIX ME
ĠFour ier
utable s
ntOr igin
ĠString Printf
Ġbund led
Ġresp on
Ġrepre sentation
mprot ect
olated World
INFORMAT IONW
Ġinterrup t
Ġgiv en
Ġeasi ly
Ġdebug ging
Ġdeact ivate
METR ICS
Ġisqu ote
Ġcomm unication
ĠOLF MAG
InIs olatedWorld
Ġelap sed
ENOTS UP
umbn ail
ĠCOM PILE
Ġbegin ning
asml inkage
RECOR D
Ġkno w
ĠESP IPE
Ġopti mize
ALIG N
fsFid State
Ġneigh borhood
GetString UTF
Ġexec utables
Ġdescrib ed
ĠView portStyleResolver
exped ited
Destroy IBusConfig
ĠGui de
ĠGENER IC
ĠGraph icsContext
ĠThrow FileException
DISCAR D
Ġcorrel ation
ValueEdit Command
proxim ityPosition
ToFind Pboard
IndexedDBKe y
cancel led
component s
ForTest s
Ġinterpol ation
PrintingNodeOr PdfFrame
FromExisting Text
Serialized ScriptValue
ĠSTDOU T
ExecuteNo ValueEditCommand
AndMatch Style
CSSInsert Request
ĠWorker ProcessLauncher
Ġdiscret e
Composition FromExistingText
SelectionExt ent
rxInstall er
MagickTr ue
NotFo und
tsvw g
segvgu ard
AdjustSelection ByCharact
Disown Opener
Ġsymb ol
DidUpdate SandboxFlags
DidGetDocument Cookie
NoContent Response
ĠUnfortun ately
ExtendSelection AndDelete
ShouldDisplayInNew TabPage
ĠPOLLRD NORM
EditableSelection Offsets
DOORBE LL
MoveRange SelectionExtent
RunModalAler tDialog
SUCCE SS
UserAge ntOrigin
CorruptImage Error
EndOf File
FALLTHROU GH
LoginHt mlDialog
Misspell ing
StepOp Ptr
SurroundingSelection Request
Unexpected EndOfFile
WINSTATIONQUERY INFORMATIONW
dynam ically
watchedSelectors Rules
AdjustSelectionByCharact erOffset
" ));
" ),
& ':
' -
' .
' \
' ";
' ll
( -
( _
( __
) ";
* )
* );
* ";
- )
. "
. )
. ,
. ",
. ).
/ ")
0 1
0 2
0 3
1 1
1 9
1 0000
2 0
2 000
4 0
5 0
5 12
8 2
8 4
8 8
9 4
9 8
= "
= ",
= (__
> &
> *
> ::
> ")
? ");
A B
A X
A l
A n
A nt
A NT
A SK
B reak
B RE
B AL
B rowser
B its
B IT
B ind
B Mipmaps
B roker
C O
C a
C h
C l
C ro
C OP
C ode
C IP
C heck
C OS
C CM
C lass
C alculate
C ASE
C annot
C rxInstaller
D T
D W
D ate
D IC
D ictionary
D idFinishPrinting
D XT
D pi
D raft
D RAG
D ragonFly
E W
E n
E STAR
E lements
E EXIST
F AT
F allback
F irst
F IX
F ilter
F RAG
F etcher
G E
G ER
G EN
G LO
G ATED
G DataDirectory
G ENER
H U
H W
H ur
H as
H IG
H igh
H and
H USER
H IST
H AS
H CIP
I nt
I PC
I ter
I RT
I LL
J OR
K N
K ill
K NETBSD
K FREEBSD
K ILL
L B
L T
L SE
L ite
L ay
L US
L og
L inux
M S
M U
M a
M s
M in
M is
M ON
M IF
M em
M ALL
M erge
N G
N AGE
N ext
N EL
N SEC
N EW
O W
O ST
O CK
O ption
O SPACE
O GRAM
O verlays
P T
P er
P ar
P IN
P OR
P ack
P ix
P TH
P ending
P BA
P ush
P TION
P VSCSI
P oly
P WINSTATIONQUERYINFORMATIONW
P AX
P LUS
P NG
P OST
Q ue
Q UE
R B
R en
R ing
R SE
R IP
R AR
R IG
R and
R OID
R SR
R UNC
R AMS
S ame
S up
S ending
S CTP
S ign
S UP
S MP
S ample
S uSE
S MALL
S OCK
T F
T O
T S
T W
T AG
T SS
T OP
T OO
T OU
T ime
T ick
T ABLE
T SY
T URE
T itle
T emporary
T LSE
U X
U se
U int
U ID
U AL
U RSE
V LOG
V EL
V IRT
W in
W IN
W ID
W ith
W rite
W idth
W atched
X X
X SLStyleSheet
Y ou
[ /*
[ --
] \
] ->
] ");
] =",
_ ),
a v
a st
a ra
a ze
a file
a ff
a ndidate
a led
a round
a udio
a neous
a ffine
a ccept
a Cl
b en
b ar
b ly
b ble
b ine
b ele
b es
b and
b rightness
b ias
b idden
b roker
c ro
c buf
c break
c il
c ci
c ify
c us
c rm
c red
c rr
c ord
c reate
c atch
c ork
c rop
c ution
d l
d t
d v
d on
d ar
d ist
d cb
d Pipe
d ication
d Id
e re
e of
e ch
e ver
e vice
e qu
e pc
e ave
e cv
e uid
e gid
f v
f y
f it
f old
f alse
f ers
f ont
f etcher
g ment
g ins
g row
g fx
g nu
g reen
g ood
g lobal
g pointer
g mfn
g ged
h int
h old
h ted
h ough
h ald
i re
i or
i ct
i co
i la
i ble
i mpl
i dent
i vers
i vely
i ates
j j
k i
k s
k u
k mem
k ew
k pro
k Is
k AudioInput
k unmap
k FreeBSD
k NetBSD
k Null
k CreateProcess
k Bits
l ust
m d
m pa
m nt
m oid
m ult
m all
m ial
m ally
m alize
m orph
m convert
m otion
m boss
m osaic
n f
n te
n ate
n ify
n fd
n ded
n pc
n magic
n one
n sity
n By
n ative
n ically
n chronize
n Mis
n mpa
o h
o in
o ad
o ve
o okie
o gram
p f
p ur
p ing
p end
p ci
p ixel
p ost
p fn
p osi
p df
p papi
p tible
p discard
p olaroid
r q
r ify
r ie
r gh
r layer
s v
s se
s he
s ce
s ca
s offset
s har
s addr
s ure
s low
s sed
s sent
s sid
s nmp
s oft
s ingle
s stripped
s upport
s sive
s mush
s nmpa
t on
t he
t int
t ack
t sk
t enu
t one
t ls
t npc
u ma
u len
u ent
u do
u red
u ild
u gfn
u uid
u ara
v t
v me
v buf
v ity
v clock
v host
v tag
v olution
v oc
w id
w ar
w string
w ork
w atcher
w irl
x N
x it
x is
x html
x At
y For
y our
y Wait
z ing
z ation
} ;
ĉ ĠĠĠĠ
Ċ Ċĉĉĉĉĉ
Ġ ,
Ġ @
Ġ Y
Ġ \
Ġ Ċĉ
Ġ et
Ġ UL
Ġ ent
Ġ 64
Ġ hdr
Ġ LS
Ġ ERROR
Ġ XPath
Ġ ENABLE
Ġ 90
Ġ layer
Ġ Ke
Ġ ATTR
Ġ ....
Ġ yet
Ġ zcopy
Ġ reached
Ġ roll
Ġ your
re at
re page
re ation
re map
re alloc
re use
re alize
re place
re ceived
re start
re ater
re verse
re mented
re fptr
in ed
in val
in ery
in valid
in dir
in bound
in cluding
Ċĉĉ Ċ
Ċĉĉ ĠĠĠĠĠ
se pia
se udo
Ċĉ ĠĠĠĠĠ
Ċĉ ĠĠĠĠĠĠ
Ċĉ ĠĠĠĠĠĠĠ
Ġ( '
Ġ( /*
Ġ* __
Ġ* ),
Ġ* ((
er ase
er frame
er ize
er min
er tain
er color
er ging
st q
st ic
st Error
st ub
st alled
st dout
on light
on itor
Ġt int
Ġt op
Ġt alloc
Ġt ick
Ġt im
Ġt ell
Ġt reat
le ted
le ft
le ep
if ing
at us
at tenu
Ġc off
Ġc ut
Ġc red
Ġc cm
Ġc lean
Ġc atch
Ġc yc
Ġc alled
Ġc alc
Ġc ustom
Ġc alculate
Ġc lust
Ġc vt
Ġc ertain
of ten
or de
or age
or igin
or mally
si an
si gne
si vely
si mult
me d
me an
me ta
me sh
me tric
he me
he art
he sis
he ses
Ġa si
Ġa ck
Ġa li
Ġa sk
Ġa rr
Ġa mpl
Ġa reas
Ġa ssoc
Ġa cc
Ġa ccept
Ġa band
Ġa cci
Ġa xis
int ent
int ensity
ge ometry
ge ther
de c
de ed
de sk
de lay
de construct
de noise
Ġp s
Ġp in
Ġp ur
Ġp en
Ġp ip
Ġp add
Ġp red
Ġp ract
Ġp lace
Ġp lacement
Ġp osition
Ġp ow
Ġp eer
Ġp vscsi
Ġp oly
Ġp ict
Ġp vclock
Ġp seudo
Ġ{ }
Ġ" "
Ġ" *
Ġ" .
Ġ" /
Ġ" <
Ġ" ",
Ġ" '";
al for
al frame
al Predicate
al ert
ra ns
ra di
ra ight
ra ise
ur ing
ur ments
ur ating
ur istics
off screen
en ing
en um
en gth
en Window
en hance
en coding
ce eded
ce ptible
set ting
set Parent
set Platform
it al
it ing
it list
it ies
it udes
it ably
it uent
ma nd
ma nce
ma cro
Ċĉĉĉ Ġ
Ċĉĉĉ ĠĠ
Ċĉĉĉ ĠĠĠĠĠ
ne gate
ne eded
Ġf p
Ġf ut
Ġf il
Ġf all
Ġf ine
Ġf ull
Ġf low
Ġf lag
Ġf ilp
Ġf our
Ġf inished
Ċĉĉĉĉ ĠĠĠĠĠĠ
un ref
un link
un handled
un its
un install
un ique
un necessary
un shar
Ġi buf
Ġi pipe
Ġi pc
Ġi rq
Ġs b
Ġs li
Ġs an
Ġs ine
Ġs ys
Ġs uccess
Ġs can
Ġs pread
Ġs orted
Ġs ince
Ġs urface
Ġs mush
Ġs mall
Ġs wirl
Ġs leep
Ġs often
ot hing
ing Message
ing RuleSet
ca pa
ca nt
ca rv
rea ch
id b
id s
LE QDATE
LE QLDATE
LE QUAD
LE QWDATE
LE VEL
pa int
pa nd
pa ir
pa nel
pa gate
pa ssed
return val
ha ra
bu st
bu ild
pe ckle
Ġw in
Ġw all
Ġw char
Ġw ord
Ġw indow
Ġw ake
Ġw rit
Ġw rt
Ġw alk
ue PrinterQuery
Ġn ul
Ġn fd
Ġn ight
Ġn lat
Ġn badcap
Ġn ice
Ġn mis
Ġn ast
lo ok
lo ud
ion s
ion al
ck ing
co v
co me
co mple
co ming
co ale
co mb
co efficients
te s
te st
str ip
str cmp
str dup
str ibu
str ibute
Ġif def
el if
buf fs
is y
is ing
is View
is ually
is Null
is allow
is PrintScaling
is Mobile
is fy
ĠF ile
ĠF la
ĠF ill
ĠF irst
ĠF ork
ĠF ailed
ĠF AULT
ĠF its
ĠF orb
ĠF inished
ile ges
ile ged
)) );
)) ))
)) )))
xt end
ut ation
ut oFill
la ps
la unch
la cing
la unched
la bel
ss ingRules
op eration
op erations
op Worker
nt ent
ch o
ch op
ch root
ch rome
con s
con struction
con vol
ĊĠ Ċ
ĠS ome
ĠS HO
ĠS TR
ĠS uSE
Ġb its
Ġb ail
Ġb ias
Ġb roken
Ġb locks
ad jo
ad yFor
ate Process
Ġin ode
Ġin dir
Ġin verse
Ġin side
Ġin ev
Ġin stall
Ġin dication
Ġin voc
Ġin deed
Ġin coming
Ġre load
Ġre alloc
Ġre ally
Ġre ceiv
Ġre verse
Ġre ported
Ġre send
Ġre connect
Ġre serve
Ġre ports
Ġre moved
Ġre construction
mp ting
mp ort
Ġd st
Ġd up
Ġd ie
Ġd raw
Ġd uration
Ġd aze
Ġd uring
et h
et sca
ER F
ER ATION
ER ED
ER ESTAR
ol or
ol ate
ol ve
Ġl ib
Ġl atter
ser ContextPtr
ed s
ed ge
ed ing
Ġm get
Ġm list
Ġm orph
Ġm uch
Ġm otion
Ġm osaic
Ġm erging
Ġm onitor
Ġm alfor
uct ion
vi con
vi gnette
ĠI P
ĠI S
ĠI ns
ĠI ntent
ĠN ull
ĠN OSPACE
ĠN aCl
ĠN ever
ĠN xN
ĠN ormally
ĠN othing
ĠN etsca
ul ation
AG RAMS
ar se
ar ray
il er
il st
li qu
li ke
li ber
li mit
an y
an on
an gu
Ġto o
Ġto uch
Ġto gether
Ġv q
Ġv buf
Ġv ers
Ġv ary
Ġv ector
Ġv isually
Ġ1 4
Ġ1 000
UL D
tr ue
tr im
tr ics
IN DE
IN DAT
OR IG
Ġint ent
Ġint ens
Ġth ous
Ġth ings
Ġth ough
Ġth umbnail
end ian
up le
Ġ/* -
print ed
ST RE
ST ACK
ST ERROR
ST CON
ic al
ic ular
SS ION
Ġcon sole
Ġcon fig
Ġcon vol
Ġcon volution
Ġse e
Ġse ed
Ġse ver
Ġse cur
Ġse par
Ġse am
Ġse pia
Ġse gment
Ġg c
Ġg un
Ġg ot
Ġg op
Ġg rr
Ġg nu
Ġg reen
Ġg ain
Ġg uara
Ġg reater
Ġe qu
Ġe mulate
Ġe src
Ġe fficient
Ġe lements
Ġe mpty
Ġe mboss
Ġe cho
Ġde ci
Ġde line
Ġde stroy
Ġde cla
Ġde cipher
Ġde nsity
Ġde pend
Ġde leted
Ġde liber
Ġ(! ((
th us
th umbnail
() ",
ata Source
ME NT
fo reach
pp Launcher
Ġreturn val
sc all
sc aling
sc ene
sc heme
sk etch
ver y
ver age
ver bo
Ġco efficients
Ġco uple
Ġco verage
ve ctor
ĠO ID
ĠO ption
ĠO pen
Re serve
Re moved
Re adyFor
ĠD on
ĠD id
ĠD ie
ĠD rop
ĠD OM
ĠD ragonFly
ĠD VLOG
ĠD isallow
Ġoff s
Ġoff screen
text ure
Ġu bufs
Ġx path
Ġx HCI
mem cmp
ase d
ĠP R
ĠP RE
ĠP IPE
ĠP CI
ĠP repareFrame
ĠP olaroid
ĠP WINSTATIONQUERYINFORMATIONW
ĠP MU
ĠP ERF
ĠP arse
In formation
In stalled
Ġoffset reg
Ġel udes
Ġwe ight
Ġwe bk
SE Q
SE SS
SE LF
SE EK
SE QU
error s
OP E
so lar
ĠT LS
ĠT ime
ĠT YPE
ĠT ake
ĠT ell
ĠT wo
ĠT ASK
ĠT ech
ĠT ermin
Ġo ur
Ġo il
for ms
for mat
for mance
ci al
ci ent
get buffer
fa vicon
ment ary
ns ure
name ntal
ation Query
ation Pending
sg l
ĠA SI
ĠA PE
ĠA rgh
ĠA utoFill
ĠA ppLauncher
Ġma p
Ġma ssive
try lock
Ġst ub
Ġst ay
Ġst retch
Ġst reams
Ġst dout
Ġst orage
Ġst raight
Ġan other
Ġan im
Ġan cient
ig no
ig her
ig nore
ig ger
ta int
ble nd
do sh
do min
do uble
EN TR
EN CE
EN UM
data Len
sh ow
sh Pix
um Range
AND ROID
SL OT
ĠC R
ĠC lean
ĠC om
ĠC ould
ĠC opy
ĠC ancel
ĠC alculate
ĠC rxInstaller
ĠC URSE
ĠC andidate
ĠC ookie
ĠC loud
ĠC olor
PC M
PC IE
ID S
ID TR
ID evice
user s
Ġ(( !
Ġ(( __
Ġ(( ((
Ġchar coal
Ċĉĉĉĉĉ Ġ
Ċĉĉĉĉĉ ĠĠ
Ġbe come
view Source
RE SV
RE AS
RE ORD
che New
qu ant
Ġk map
Ġk pro
Ġk nown
Ġk IBus
Ġk CreateProcess
Ġk Min
rent Compositor
__ ,
wa y
wa hara
Ġit er
ERR UP
ERR QUE
ĠM C
ĠM IP
ĠM og
ĠM ove
Ġcol on
ĠE valu
ĠE ither
ĠE OF
ĠE ssent
ĠE nsure
Ġprint ed
ĠOn Error
ĠOn Delete
ĠOn Stop
ĠOn Blocked
ĠOn Cut
ĠOn Reload
ĠOn AddMessageToConsole
ĠOn Unselect
ĠOn FailedNavigation
ĠOn Navigate
ĠOn ContextMenuClosed
ĠOn BeforeUnload
ĠOn PostMessageEvent
ĠOn VersionChange
ĠOn Abort
ĠOn CustomContextMenuAction
ĠOn Redo
ĠOn Snapshot
ĠOn SwapOut
ĠOn Undo
ĠOn VisualStateRequest
ĠOn ExecuteNoValueEditCommand
ĠOn CSSInsertRequest
ĠOn DisownOpener
ĠOn DidUpdateSandboxFlags
ĠOn ExtendSelectionAndDelete
ĠOn MoveRangeSelectionExtent
ĠOn AdjustSelectionByCharacterOffset
Ġha d
Ġha ven
Ġha nded
Ġop ipe
Ġop enWindow
Ġnot ifier
Ġnot hing
Ġnot yet
old ing
Ġge ner
ali zation
res v
res pect
res cale
res ample
res ses
res uma
res olve
fault ing
Ġcolor map
Ġcolor ize
Ġ' "
Ġ' ;
Ġ' &':
HANDLE D
AL N
Ġ2 1
Ġ2 6
Ġ2 70
Ġor namental
Ġbuf m
Ġbuf fers
ory Policy
Ġal loc
Ġal pha
Ġal ert
LO W
CT RUNC
Print Msg
Print Frame
Print To
no auth
no mial
no stic
Ġon es
Ġpa x
Ġpa y
Ġpa ir
Ġpa inting
Ġpa using
ĊĠĠĠĠĠĠĠĠĠĠĠĠĠĠĠĠĠĠĠĠ ĠĠ
SC M
SC OPE
ir m
context Pos
Set Un
Set Boolean
Set Handle
Set Text
Set Integer
Set Act
Set Compositor
Set NotImplemented
Set AccessibilityMode
Set CompositionFromExistingText
Set EditableSelectionOffsets
ter s
Ġme trics
const ant
stance Data
Ġtr im
Ġtr unc
Ġtr igger
Ġconst ituent
()) ,
()) ->
mat rix
conf irm
Ġvalue Push
St art
St ub
St atus
St ationQuery
us Con
us pace
us sian
Ġhe uristics
Ġne gate
Ġne ts
Ġout bound
MA COS
MA JOR
MA NAGE
UN CH
UN AV
UN SUP
UN HANDLED
UN MANAGE
ele m
free bsd
Ġh ue
Ġh ist
Ġh our
Ġh ow
Ġh owever
Ġh igher
Ċĉĉĉĉĉĉ ĠĠĠĠ
Get Ex
Get Impl
Get La
Get PrintSettings
Get Pages
Get MediaDeviceManager
Get Function
Get Parent
Get Devices
Get NativeLibrary
Get RoutingID
Get Next
Get Watched
Get Installed
IC E
IC ETYPE
IC ASE
ext ent
ext ract
ext ended
able Event
Ġr x
Ġr buf
Ġr ate
Ġr ates
Ġadd ing
Ġadd resses
Ġex clude
Ġex isting
Ġex ceeded
os al
Ġca re
Ġca ption
sig noff
sig moid
Ġas sem
cap tion
Ġdesc rip
(" '-
DB usCon
Node Ptr
back ground
char s
char coal
ist Magick
ti ve
Ġ4 03
ĠV ector
ĠV CPU
Ġstr ip
Ġapp lic
Ġ", "
BE QDATE
BE QLDATE
BE QUAD
BE QWDATE
DE PTH
ex clude
ex isting
ex prOp
ex press
ex ecv
ex pand
Ġun handled
Ġun install
Ġun used
Ġun ique
Ġun successful
Ġun authent
Ġun necessary
Ġun needed
Ġend win
Ġend ian
Ġsk etch
Ġsk buffs
ACK s
LI TE
app Ad
app Mo
app Removed
rm ode
Ġname d
Ġname s
Ġname size
reg free
reg comp
reg ard
reg match
(( (
pr Ptr
De viceManagementBackend
De coding
De mand
Ġnew p
Ġnew ly
Ġnew ContextSize
und s
und ing
und ercolor
Ġwh ilst
NT P
NT COP
ag ing
ag nostic
out ine
out Ms
init y
init ialized
init ions
def ined
Ġno block
Ġno cbreak
Ġno isy
Ġset up
Ġtra p
Ġtra vers
Ġtra cking
Ġmat te
lig hted
ONF LY
di rection
di stribute
kvm clock
sp read
sp lice
sp erframe
ĠG C
ĠG as
ĠG IF
ĠG ener
ĠG enerate
ĠG TK
ĠG DT
ĠG DBusCon
ĠG NTCOP
Ġat tent
Ġat omic
Ġat tribute
Ġat tack
net if
net prio
net bsd
Ġfa ce
Ġfa mily
Ġfa ctor
ted FrameOnUI
CHE D
Ġmis cellaneous
ĠTh us
EX CE
EX PRE
EX IT
EX TEND
EX CHAN
FOR CE
em boss
ial ly
ize d
Ġpro c
Ġpro p
Ġpro gress
low ed
cop rocess
Ġcontext Pos
NOT ICE
Ob serve
SD OWN
TH READ
ob tain
ob ject
Ġcop ious
Ġpr io
Ġpr iv
INT ERRUP
AR IS
cm ds
cm fptr
ff t
ff ix
per ty
per ceptible
ord ing
chunk len
chunk hdr
Ġcookie pkt
Request ed
Request ID
Request Info
Ġpipe s
Ġcount s
Ġcount ers
ĠASCONF s
OFF ADD
Pa X
Pa rameter
iv ity
ive s
ive URL
num ber
MEM SLOT
ĠPrint ingMessage
Ġ>> =
ight Ratio
). \
es rc
Ġbase d
Ġbase reg
Co mplete
Co mmitNavigation
PE G
TE D
sha de
sha ve
Ġmsg type
Ġmsg pkt
Ġmsg seq
Ġmsg payload
Ġold er
Ġold fs
Ġcor k
Ġcor outine
cookie len
Ex iting
Ex prPtr
IG NOR
Man ager
pro c
pro pagate
pro mpting
ĠU D
ĠU h
ĠU se
ĠU MA
ĠU rl
ĠU RG
ĠU TF
Ġsi de
Ġsi mple
Ġra w
Ġra ise
Ġra ising
request s
Ġpre vent
Ġpre sent
Ġpre viously
Ġpre cision
Ġper tain
Ġper formance
Ġkvm clock
Ġtrans mit
Ġtrans forms
bad seek
ĠR un
ĠR and
Ġar t
Ġpoint s
Ġpoint ing
Ġpoint ers
Ġrec reation
param len
param hdr
Ġcopy ing
Error Code
OO M
Process Host
Process Delegate
Process Launched
View Ren
ap pear
use s
we ight
Ġ8 0
Ġ8 19
ĠL eave
ĠL oad
ĠL ength
ĠL istMagick
Ġret ry
Ġret rie
Ġret rans
ĠRe size
ĠRe sponse
ĠRe move
ĠRe cord
Ġpack aged
Ġver ifier
Ġver ification
Ġver ifing
Ġmagic check
dexedDB Dispatcher
LA BLE
LA STERROR
LA UNCH
OU T
On Device
On Object
On ScriptedPrint
On GetDevices
On ProcessLaunched
To Exe
To Boolean
To Be
Ġsh out
Ġback end
Ġback ward
ĠIn sert
ĠIn stanceData
ĠIn dexedDBDispatcher
Res ult
Ġany way
Web Kit
Web UID
AI T
AI LABLE
SG SIZE
SG State
min ed
min Pos
Ġlo st
Ġlo gged
Ġtext ure
string stream
Ġuse d
Ġuse ful
Ġstd in
Ġstd io
CH UNK
NO MEM
NO MATCH
VAL ID
sa ve
sa bility
sa mpling
atch Command
max opened
parent StyleSheet
parent heses
Ġrequest s
ĠID S
*/ ;
AP P
Add Un
Add Shutdown
Is From
Is Device
Is Activ
Is Same
Sc reen
and s
and roid
Ġle ave
Ġle ts
Ġle sse
Ġfrag off
can ny
comp ress
comp ose
comp osite
comp ensation
Ġbo x
Ġbo undary
Ġbo unding
Ġby pass
Ġres cale
Ġrender ing
REG S
Ġtry ing
Bo okmark
Bo undary
Bo unds
CON SU
CON STCON
For Document
For Plugin
For ward
For bidden
PRE DIC
bil ities
ĠX SLStyleSheet
ĠX HCIP
ĠX XX
Ġbu bble
Ġcurrent ly
mar gins
Ġsa ved
Ġsha de
Ġsha pe
Ġsha ve
Ġsha ped
par se
par tial
ĠNOT IFICATION
Ġinter medi
Ġinter ior
Ġinter lacing
Ġcomp iled
Ġcomp ositor
Ġcomp utation
Ġcomp iler
ĠThe y
Printing Context
Printing Failed
Printing Result
trans verse
trans pose
trans mitted
Ġprogram ming
-- ,
From Pos
From PrintSettings
From Media
From User
From Parent
From Css
From RoutingID
Ser ial
block sperframe
hv a
ning s
pre cision
pre domin
ĠH Z
ĠH andle
ĠH ald
ĠH ere
ĠH itlist
ĠH olding
Ġget s
ste p
ĠST ACK
ĠSend NoContentResponse
ĠSend Forbidden
ĠDe viceManager
Device Id
Device NotFound
color space
color ize
rowser ViewRen
Callbacks Error
Callbacks Blocked
Callbacks VersionChange
ĠClientHello s
Do Generate
Met afile
Page Range
Page Count
Page Lay
Preview Modifiable
Un ava
Un used
Un commit
Un like
Ġj oin
ĠGet MediaDeviceManager
ĠGet Content
ĠGet InputContext
ĠGet Client
ĠGet PrintScaling
ĠGet Devices
ĠGet PrintFrame
dev s
Ġsup pose
Ġsup press
root s
Ġlist ening
Ġsend s
Ġsend ing
Instance ID
Instance Data
ĠAdd Poly
pected PageCount
Create File
Create Instance
Create AudioInput
SK B
be at
bl ers
disp atch
disp ose
disp atcher
disp osition
line ar
xmlXPath Comp
xmlXPath NodeSet
xmlXPath ReleaseObject
xmlXPath CompOpEval
xmlXPath ContextPtr
xmlXPath ObjectPtr
xmlXPath StepOpPtr
xmlXPath Par
Ġed st
Ġview ing
Ġclient vers
Ġcheck s
medi an
Ġph oto
Ġspe ckle
Ġthreshold ing
Resource FromParent
ĠxmlXPath NodeSet
ĠxmlXPath ObjectPtr
ĠxmlXPath StepOpPtr
ĠxmlXPath Ca
Ġob server
Ġparent hesis
Ġstring s
ĊĠĠĠĠĠĠĠĠĠĠĠĠĠĠĠĠĠĠĠĠĠĠĠĠĠĠĠĠĠĠĠĠ ĠĠĠĠĠĠĠĠĠĠĠĠĠĠĠĠ
Execute Get
Execute Delete
Execute Post
HT S
OM PLETE
Type dId
ant ialias
ant umRange
kError Response
kError Http
kError Temporary
point size
index es
stro ke
stro kew
Ġtime s
ifi cant
ream DeviceInfo
lar is
lar ity
ĠSet tings
ĠSet App
ĠSIG KILL
Ġdis k
Ġdis able
Ġdis abled
Ġdis appear
Ġext end
Ġext ended
Ġevalu ating
Ġdeter mined
Ġmay be
Ġformat ting
Ġformat ted
wait queue
Ġorigin ated
pector View
pector Test
Comp osite
Select Range
Select All
web view
CM ODE
Ns Ptr
UI ID
fin alframe
ga ussian
ĠB P
ĠB ump
ĠB roken
ĠB INTE
ĠB uild
ĠB ased
ĠB rowserViewRen
Ġvi gnette
Ġvi olate
Ġother wise
separ ate
magic check
magic find
nect ToExe
INST ALL
INST AN
INST ALLED
INST ANT
Ġgra nu
Ġdelegate d
OPIN DIRECT
Ġstate ful
table s
ĠCh ildFrame
BUS Y
NodeSet Ptr
Default PipeName
Ġmatch ing
Params FromPrintSettings
SERVER HELLO
mark s
Audio Parameter
Audio Manager
Directory Service
FP USE
FP KN
LIN UX
Not hing
Not Sup
UP DAT
Window Controller
cv t
clear pkt
dup licate
ep t
nu mport
Ġlow er
Ġserver s
Ġtable s
Ġcm d
inter lace
inter line
inter pol
inter word
range s
Ġwrite s
Ġwrite access
Ġins pectorView
Ġremove s
lic ity
Ġstore d
SIG SEGV
ĠMA Y
ĠOnSuccess Open
ĠOnSuccess StringList
ĠOnSuccess IndexedDBKey
ĠOnSuccess SerializedScriptValue
spin locks
Ġfault ing
CallbacksSuccess StringList
CallbacksSuccess IndexedDBKey
CallbacksSuccess SerializedScriptValue
EM PT
EM SGSIZE
Fo cus
SY M
SY MT
UDP LITE
cla mp
cla ssid
draw Focus
mod ule
mod ulate
mod ified
mod ifiable
pol y
pol icy
rt nl
sub type
Ġen able
Ġen coding
Ġen ough
Ġen sure
Ġsign aling
Ġsign ificant
ĠREG EX
Ġchannel s
dent ry
dent ally
Ġfree ing
Ġfilter s
open Window
ĠSe ction
ĠSe ekBlob
ĠSt opWorker
ĠSt reamDeviceInfo
ĠSkip RG
ĠSkip DXT
Ġreg ular
Ġevent ually
Init ialize
Ġhappen s
ĠVM CS
ĠWebKit WebView
StyleResolver ForDocument
PRO G
Ġradi al
Ġshould n
IBus Prop
kSetting Generate
kSetting Margins
kSetting PreviewModifiable
)(( __
CS UM
GR OW
IS REG
IS REPLY
IT LB
IT CHED
Mod ule
Qu antumRange
So laris
Text SurroundingSelectionRequest
WR ONG
call er
frag len
ld f
mer ge
mer Elements
sem bly
stat us
stat istic
Ġta ken
Ġaut hent
Ġflo at
Ġflo odfill
Ġio cb
Ġio mmu
Ġsc aling
Ġsu fficient
Ġsu ffix
Ġsy nchronize
Ġsy scall
reas on
Ġinc remented
Ġdi stribu
Ġdi agnostic
Ġdisp lace
Ġdisp osal
Ġdrop ped
Ġmod ify
Ġcontain ing
Ġselect ively
ĠDo S
Ġover write
Ġover laps
ĠAV Pack
ĠAl so
ĠAl ready
Ġstart s
qual ity
ĠMake TypedId
Ġoperator s
PrintPreview Failed
PrintPreview Cancel
PrintPreview Invalid
PrintPreview Scaling
Ġfail ing
Pass Uncommit
Ġcorrup tion
srp info
srp gN
ĠInputMethod IsActiv
Ġgraph ics
AudioInput Host
AudioInput Sample
JavaScriptExecuteRequest InIsolatedWorld
JavaScriptExecuteRequest ForTests
Aut oFill
App Info
Bus yWait
Channel s
Channel Handle
Channel Proxy
Did PreviewDocument
DON TW
Free Ns
He ightRatio
List Base
No New
Net work
Name dPipe
Plugin Delegate
msi x
sys conf
xml Doc
xml NodePtr
xml NsPtr
one ed
Ġap pear
Ġact ual
Ġport ion
rar gs
rar ily
mag nify
packet ized
temp ts
Ġbl ue
Ġrecur sive
Ġrecur sively
Ġdif ference
Ġdif fu
Ġmo unt
Ġmo ved
Ġmo onlight
Ġmsi x
Ġmult i
INC OMPLETE
Ġgo od
Ġdeta iled
Ġcom ment
Ġcom ments
Ġcom bine
ĠOP EN
fact or
Ġannot ation
check sum
ĠMaybe LaunchInputMethod
ĠMaybe DestroyIBusConfig
Ġ20 4
Ġnet dev
Ġnet bk
LIB RAR
Observer ListBase
ĠUn map
ĠUn loadedExtensionInfo
ĠUn priv
LINE AR
Ġtermin ates
ĠInputMethodLibrary Stub
By Broker
Copy ToFindPboard
NMI UNKNOWN
Se ekBlob
Scoped StyleResolver
Scoped NativeLibrary
chan ges
nor malize
tree depth
tree Boundary
xa c
xb c
Ġ... )
Ġzero ed
Ġzero es
Ġreas sembly
Ġimp lode
Ġident ified
Ġsat urating
Ġsat isfy
Ġsome thing
Ġwork around
Ġdt ls
Ġmin or
Ġcont roller
Replace Misspelling
Ġxen vif
ĠPepper PlatformAudioInput
ĠPepper AudioInputHost
Ġman ner
Ġman ager
Ġman aged
Ġman aging
Ġmach inery
Ġmapping s
ĠCon vert
ĠCon nectToExe
qui et
ĠOnSelect Range
ĠOnSelect All
Ġallow s
Ġmeas ured
Ġmeas urments
Stream Type
Stream DeviceInfo
Ġproble m
Ġprofile s
Paste AndMatchStyle
ĠReturn Unused
ĠReturn ResourceFromParent
Ġadapti ve
Ġlea ps
Ġlea ks
Open ed
Open BSD
Open Device
ĠXHCI State
Ġshadow s
AndView FromCss
large pages
Ġdisca rd
collectViewportRules To
Disabled ForPlugin
Should Ant
Should Use
Auth Controller
Accessibility Msg
Accessibility Tree
Thread Impl
kSettingHeaderFooter URL
kSettingHeaderFooter Date
kSettingHeaderFooter En
kSettingHeaderFooter Title
!! \
!! !!\
")) );
BLO B
CAP TURE
COM P
COM PAT
COM PLETE
Change d
Cancel Request
DO W
Draw Hw
END CAP
GH Z
GIN S
GET LASTERROR
Generate AuthToken
NON E
Native Window
Pro perty
Position alPredicate
Pepper PlatformAudioInput
Policy Controller
Policy NotFound
Profile Style
Pdf Requested
RenderFrame Impl
RenderFrame Observer
SN MP
SW ITCHED
Token Invalid
dis able
flo p
flo at
flo odfill
high light
huge cache
ker ning
kDefault Width
kDefault DeviceId
kDefault HeightRatio
och rome
own er
pose s
Ġla unch
Ġla bel
Ġla bele
Ġlarge page
select ive
Ġtake s
interrup t
den sity
des peckle
Ġpart s
Ġpart icular
Ġsp lice
Ġsp tes
Ġslow ly
Ġscale s
Ġrect s
Ġrect ype
Ġrect angu
Ġreset s
Ġreset ting
Ġrequi res
Ġmm io
Ġmode l
ĠIs PrintTo
ĠIBus Bus
ĠIBus InputContext
ĠIBus Property
Ġvalid ation
Ġ10000 0
Ġconnect ed
Ġconnect ivity
ĠDisp atchCommand
ĠPa X
ĠPa eth
ĠPa rentCompositor
ĠPlugin Module
ĠPVSCSI SGState
OPER ATION
OPEN BSD
aged State
Ġstat istic
REP ORT
ĠError ToString
ĠOnSet AccessibilityMode
ĠOnSet CompositionFromExistingText
ĠOnSet EditableSelectionOffsets
ĠOnJavaScriptExecuteRequest InIsolatedWorld
ĠOnJavaScriptExecuteRequest ForTests
alias ing
Printer Settings
ADR ALN
Ġmedi an
Stop Worker
UNINST ALL
Ġhold ing
GetApp s
Ġrot ation
Ġaddip hdr
Ġexpect s
Ġmathemat ics
Ġmathemat ically
Ġmathemat ical
InputMethod Library
Ġproper ly
observer s
ĠUpdate Mem
Ġarbit rarily
ĠReset ScriptedPrint
ĠInit DirectoryService
ĠHttp RequestInfo
ĠHttp Network
ĠHttp AuthController
Database CallbacksVersionChange
kErrorService Activ
kErrorService DeviceNotFound
kErrorService PolicyNotFound
Compositor Frame
rdms rl
SIGN AL
Ġhighlight s
Ġargu ment
CallbacksSuccessIDB Cursor
CallbacksSuccessIDB Transaction
CallbacksSuccessIDB Database
IBusCon nection
ĠRenderFrameObserver Tracker
Ġhandl ing
Ġ...] \
Ġreason s
Ġreason ably
DYN SYM
Wait ableEvent
Wait NamedPipe
ĠINDIR OFFADD
:// "
:// ";
AV Format
Css Info
Daemon Path
Http Auth
Len gth
Maybe DestroyIBusConfig
Maybe GenerateAuthToken
OWN ER
Send NotImplemented
Send NoContentResponse
SOL ARIS
fu zz
gra yscale
gra vity
imp licit
imp lode
kPreview RequestID
kPreview UIID
mon itor
mon ochrome
mis cellaneous
sw event
sw irl
scoped StyleResolverForDocument
spar c
spar se
successful ly
with out
xx x
xen vif
ĠJ ust
ĠJ PEG
Ġcre ator
Ġcre ating
Ġcall chain
Ġchan ges
Ġchan ging
sibl ingRules
sibl ingRuleSet
del ta
Ġpe ek
Ġpe eked
Ġpci e
allow ed
man ager
man agedState
Ġwor th
Ġwor ry
Ġwave let
com ment
com pare
ĠFrom StreamDeviceInfo
ĠSpe cify
ĠSpe cial
Ġred uction
Ġresi lient
Ġresi zing
Ġrece iver
Ġrece ivers
Ġresource s
Ġdig its
Ġdig ital
Ġdist ort
Ġdist ant
Ġlight en
Ġlimit ed
virt queue
virt ual
ĠNMI s
annot ate
Ġva rargs
Ġdec rease
Ġdef ine
Ġdef initions
Ġcomple x
Ġcomple mentary
Reply Params
Ġxml Node
Ġxml NodeSetPtr
ĠPC IDevice
getapp info
getapp table
Ġmark ed
ĠCreate AppInfo
Ġke y
Ġke ep
ĠkPipe Connect
ĠkPipe BusyWait
wave let
ĠOnCo mplete
ĠOnCo mmitNavigation
ĠOnText TrackSettings
ĠOnText SurroundingSelectionRequest
ĠOnCopy ToFindPboard
ĠOnReplace Misspelling
ĠOnPaste AndMatchStyle
oldContext Node
oldContext Doc
Ġgete uid
Ġgete gid
Ġ'^ ':
Ġ'^ ')
Ġ25 5
Ġ25 6
Ġorient ation
Ġalter nate
matte color
Ġnest ing
Ġnest ed
MAR CH
MAR GINS
Connect Channel
Ġexist s
DEV ICETYPE
DELE TE
DELE GATED
register ing
EXIST ING
INTE GER
ĠPrintProp List
Ġsimp ly
Ġsimp licity
Ġprece de
Ġprece eding
ĠRender ParamsFromPrintSettings
ĠRender ThreadImpl
ĠResource Tracker
LAY ER
LAY OUT
CHAN NEL
authent icate
IsE qual
IsE mpty
Ġlet ters
compat ible
Metr ic
Metr ics
ĠxmlXPathNodeSetClear FromPos
ĠxmlXPathCompOpEval Predicate
ĠxmlXPathCompOpEval ToBoolean
kErrorRequest Failed
kErrorRequest Invalid
kErrorServiceManagement NotSup
kErrorServiceManagement TokenInvalid
SelectPopupMenuIte m
SelectPopupMenuIte ms
Launched Process
Notification Details
Notification Source
ĠOnSuccessCursor Continue
ĠOnSuccessCursor Prefetch
ĠOnSuccessIDB Transaction
ĠOnSuccessIDB Database
Ġexplicit ly
CallbacksSuccessCursor Continue
CallbacksSuccessCursor Prefetch
Ġsucce eded
Ġsucce eds
PipeName Class
LaunchInputMethod Process
AUDIO CAPTURE
Ġfixup s
Ġevery thing
ĠOnSelectPopupMenuIte m
ĠOnSelectPopupMenuIte ms
Ġmeasure ment
TransactionCallbacks Abort
TransactionCallbacks Complete
DrawConstraints OnUI
Proxy AuthToken
ĠUpdateFrame Margins
ĠUpdateFrame AndViewFromCss
Ġinterpret er
ServerQuery Response
ServerQuery Metric
Mobile ProfileStyle
Snapshot Tree
regex ec
Ġpotential ly
uncommonAttribute Rules
uncommonAttribute RuleSet
Ġspan ning
Ġrespon d
Ġrespon sability
ĠWorkerProcessLauncher Test
10000 00
Al lowed
BRE AK
Browser Overlays
BIT MAP
CO UNT
Ch ildFrame
Cro ssingRules
Calculate Screen
DW ORD
Draft Data
DRAG ONFLY
FAT AL
Fallback Tick
First Request
FIX UP
FRAG MENT
GLO BAL
GDataDirectory Service
GENER ATE
HU RD
Hur d
Has FrameOnUI
HIG HUSER
High lighted
Hand ler
HIST OGRAM
Int Rect
Iter ator
Kill Process
MS B
Ma xAt
MON O
MIF F
Merge Dictionary
NEW LINE
Per AudioInputSample
POR TED
PVSCSI Request
Que uePrinterQuery
RIG HTS
Rand Uint
RSR C
Sign aled
SOCK ET
TOP LEVEL
TOU CH
Time outMs
TSY S
TLSE XT
VIRT UAL
Win StationQuery
WIN DOW
WID GET
With LaunchedProcess
Write ReplyParams
aff inity
aneous ly
ben ch
catch up
cution Server
don ote
dar ken
dist ort
dcb nl
equ alize
ila ble
ident ify
ku wahara
kpro bes
kIs FirstRequest
kAudioInput Channels
kNull ProcessHandle
kCreateProcess DefaultPipeName
kBits PerAudioInputSample
nte es
nMis cellaneous
pur ge
post erize
posi tive
rify Usage
she ar
soft magic
support s
snmpa pp
ton ed
vme xit
wid get
war nings
xhtml MobileProfileStyle
Ġet c
ĠUL ONG
Ġent ire
ĠLS B
ĠKe ep
ĠATTR IB
inval idate
Ġtick et
Ġtim er
attenu ate
Ġcyc lic
Ġcalc ulation
Ġcalculate d
Ġclust ers
orde red
origin ator
signe xtend
simult aneously
meta file
heart beat
Ġali gned
Ġask ed
Ġarr ives
Ġampl itudes
Ġacc ording
Ġaband on
Ġacci dentally
desk ew
Ġpur poses
Ġpen cil
Ġpip ery
Ġpadd ing
Ġpred iates
Ġpract ice
Ġpow er
Ġpoly nomial
Ġpict ure
radi al
setParent StyleSheet
setPlatform ShouldAnt
Ġfut ure
Ġfil led
Ġflow i
Ġfour fold
unshar p
Ġsli de
Ġsan ity
Ġsys log
capa bilities
carv ing
Ġword s
Ġwrit ing
Ġnight time
Ġnlat tr
Ġnast y
look up
comple x
coale sce
comb ine
isView Source
isPrintScaling DisabledForPlugin
isMobile Document
ĠFile Path
ĠFla shPix
ĠFill ing
ĠForb idden
ileged ProcessDelegate
)))) ));
operation al
chroot ed
chrome os
convol ve
ĠSHO ULD
ĠSTR ING
adjo in
Ġinev itably
Ġinvoc ation
Ġreload ing
Ġreceiv ing
Ġreserve s
Ġdup licate
Ġdraw ing
ERESTAR TSYS
Ġlib s
Ġmalfor med
ĠIns pectorTest
ĠIntent ional
ĠNaCl ProcessHost
ĠNetsca pe
array count
liqu id
Ġvers major
INDE X
INDAT AGRAMS
Ġintens ify
Ġthous ands
STRE AMS
Ġconfig uration
Ġconvol ving
Ġsever al
Ġsecur ity
Ġsepar ate
Ġgrr r
Ġgain ing
Ġguara ntees
Ġequ alization
Ġemulate d
Ġefficient ly
Ġdeci ded
Ġdeline ate
Ġdecla re
Ġdepend s
Ġdeliber ately
verbo se
ĠOption s
ĠOpen BSD
Reserve InstanceID
ReadyFor Printing
ĠDOM ID
ĠPRE VIEW
ĠPrepareFrame AndViewForPrint
Information W
Ġwebk it
SEQU ENCE
solar ize
ĠTech nically
ĠTermin ateProcess
ĠAPE Context
ĠAutoFill Metrics
ĠAppLauncher Handler
Ġstraight en
Ġanim ation
igno red
dosh n
ENTR Y
ENUM ERATION
ĠCom pare
ĠCancel FallbackTick
ĠCURSE S
ĠCandidate WindowController
ĠCloud PolicyController
viewSource Style
REAS ON
REORD ERED
cheNew NodeSet
quant ize
Ġkpro be
ĠkIBus DaemonPath
ĠkCreateProcess PipeNameClass
ĠkMin Dpi
ERRQUE UE
ĠMIP S
ĠMog rifyUsage
ĠEvalu ate
ĠEssent ially
ĠOnSnapshot AccessibilityTree
Ġgener al
resuma ble
Ġpair s
SetUn managedState
SetText TrackSettings
SetAct iveURL
SetCompositor FrameOnUI
Ġtrunc ated
Start WithLaunchedProcess
Ġnets nmp
MACOS X
UNAV AILABLE
UNSUP PORTED
UNMANAGE D
Ġhist ogram
Ġhour s
GetEx pectedPageCount
GetLa stError
GetPrintSettings FromUser
GetFunction Pointer
GetParent DrawConstraintsOnUI
GetNativeLibrary Name
GetWatched Object
GetInstalled Extension
Ġexclude s
sigmoid al
Ġassem blers
Ġdescrip tion
("'- '
Ġapplic ation
Ġunique ly
Ġunauthent icated
Ġendian ness
appAd ded
appMo ved
Demand DrawHw
Ġtravers al
ĠGener al
ĠGDBusCon nection
ĠGNTCOP Y
Ġattent ion
Ġattribute s
Ġattack er
netprio idx
EXCE PTION
EXPRE SSION
EXTEND ED
EXCHAN GE
Ġpriv ileges
INTERRUP T
ĠPrintingMessage Filter
IGNOR E
ĠUrl Fetcher
ĠURG ENT
ĠRand om
Ġ819 2
ĠListMagick Version
Ġretrie ve
Ġretrans mitted
LAUNCH ER
OnDevice Opened
OnObject Signaled
OnScriptedPrint Reply
OnProcessLaunched ByBroker
ToBe Highlighted
Ġbackward s
WebUID ataSource
Ġuseful ness
AddUn ique
IsFrom Bookmark
IsDevice Allowed
IsSame Profile
Ġlesse n
CONSU ME
CONSTCON D
PREDIC ATE
ĠXHCIP ort
Ġintermedi ate
FromMedia StreamType
predomin ant
ĠHandle GetApps
ĠDeviceManager Impl
DoGenerate ProxyAuthToken
Metafile ReadyForPrinting
PageLay out
Unava ilable
ĠGetContent Client
ĠGetClient Name
ĠGetPrintScaling Option
ĠGetDevices Callback
Ġsuppose d
ĠAddPoly merElements
CreateAudioInput IPC
xmlXPathComp ExprPtr
xmlXPathNodeSet AddUnique
xmlXPathCompOpEval PositionalPredicate
xmlXPathPar serContextPtr
Ġspeckle s
ĠxmlXPathNodeSet FreeNs
ĠxmlXPathCa cheNewNodeSet
kErrorResponse Decoding
kErrorHttp Status
kErrorTemporary Unavailable
strokew idth
ĠSetApp ToBeHighlighted
ĠSIGKILL ed
Composite Hw
CMODE L
finalframe blocks
ĠBINTE ST
ĠBuild ID
ĠBrowserViewRen derer
INSTAN CE
Ġgranu larity
AudioParameter s
AudioManager Base
FPUSE D
FPKN WN
UPDAT ING
numport s
interpol ate
ĠOnSuccessOpen Cursor
EMPT Y
SYMT AB
drawFocus Ring
ĠSkipRG BMipmaps
ĠSkipDXT Mipmaps
ĠWebKitWebView Base
IBusProp List
kSettingGenerate DraftData
kSettingMargins Type
CSUM ERRORS
GROW SDOWN
Ġauthent icated
Ġdistribu ted
ĠAVPack et
PrintPreviewCancel led
PrintPreviewInvalid PrinterSettings
PrintPreviewScaling Disabled
PassUncommit tedFrameOnUI
ĠInputMethodIsActiv ated
DONTW AIT
NoNew Frame
xmlDoc Ptr
Ġappear s
Ġdiffu sion
ĠMaybeLaunchInputMethod Daemon
LIBRAR Y
ĠUnpriv ilegedProcessDelegate
ĠInputMethodLibraryStub Impl
treeBoundary CrossingRules
ĠConnectToExe cutionServer
ĠReturnUnused Resource
ShouldUse BrowserOverlays
kSettingHeaderFooterEn abled
kDefaultWidth Ratio
Ġlabele d
Ġrectangu lar
ĠIsPrintTo PdfRequested
ĠParentCompositor DrawConstraints
ĠUpdateMem oryPolicy
ĠResetScriptedPrint Count
ĠHttpNetwork Session
kErrorServiceActiv ationPending
AVFormat Context
SendNotImplemented Error
ĠkPipeConnect MaxAt
ĠkPipeBusyWait TimeoutMs
ĠOnTextTrackSettings Changed
kErrorServiceManagementNotSup ported
ĠUpdateFrameMargins CssInfo
ĠUpdateFrameAndViewFromCss PageLayout
CalculateScreen Bounds
FRAGMENT ED
WinStationQuery InformationW
kCreateProcessDefaultPipeName Format
setPlatformShouldAnt ialias
ĠkPipeConnectMaxAt tempts
