{"<s>":0,"<pad>":1,"</s>":2,"<unk>":3,"<mask>":4,"!":5,"\"":6,"#":7,"$":8,"%":9,"&":10,"'":11,"(":12,")":13,"*":14,"+":15,",":16,"-":17,".":18,"/":19,"0":20,"1":21,"2":22,"3":23,"4":24,"5":25,"6":26,"7":27,"8":28,"9":29,":":30,";":31,"<":32,"=":33,">":34,"?":35,"@":36,"A":37,"B":38,"C":39,"D":40,"E":41,"F":42,"G":43,"H":44,"I":45,"J":46,"K":47,"L":48,"M":49,"N":50,"O":51,"P":52,"Q":53,"R":54,"S":55,"T":56,"U":57,"V":58,"W":59,"X":60,"Y":61,"Z":62,"[":63,"\\":64,"]":65,"^":66,"_":67,"`":68,"a":69,"b":70,"c":71,"d":72,"e":73,"f":74,"g":75,"h":76,"i":77,"j":78,"k":79,"l":80,"m":81,"n":82,"o":83,"p":84,"q":85,"r":86,"s":87,"t":88,"u":89,"v":90,"w":91,"x":92,"y":93,"z":94,"{":95,"|":96,"}":97,"~":98,"¡":99,"¢":100,"£":101,"¤":102,"¥":103,"¦":104,"§":105,"¨":106,"©":107,"ª":108,"«":109,"¬":110,"®":111,"¯":112,"°":113,"±":114,"²":115,"³":116,"´":117,"µ":118,"¶":119,"·":120,"¸":121,"¹":122,"º":123,"»":124,"¼":125,"½":126,"¾":127,"¿":128,"À":129,"Á":130,"Â":131,"Ã":132,"Ä":133,"Å":134,"Æ":135,"Ç":136,"È":137,"É":138,"Ê":139,"Ë":140,"Ì":141,"Í":142,"Î":143,"Ï":144,"Ð":145,"Ñ":146,"Ò":147,"Ó":148,"Ô":149,"Õ":150,"Ö":151,"×":152,"Ø":153,"Ù":154,"Ú":155,"Û":156,"Ü":157,"Ý":158,"Þ":159,"ß":160,"à":161,"á":162,"â":163,"ã":164,"ä":165,"å":166,"æ":167,"ç":168,"è":169,"é":170,"ê":171,"ë":172,"ì":173,"í":174,"î":175,"ï":176,"ð":177,"ñ":178,"ò":179,"ó":180,"ô":181,"õ":182,"ö":183,"÷":184,"ø":185,"ù":186,"ú":187,"û":188,"ü":189,"ý":190,"þ":191,"ÿ":192,"Ā":193,"ā":194,"Ă":195,"ă":196,"Ą":197,"ą":198,"Ć":199,"ć":200,"Ĉ":201,"ĉ":202,"Ċ":203,"ċ":204,"Č":205,"č":206,"Ď":207,"ď":208,"Đ":209,"đ":210,"Ē":211,"ē":212,"Ĕ":213,"ĕ":214,"Ė":215,"ė":216,"Ę":217,"ę":218,"Ě":219,"ě":220,"Ĝ":221,"ĝ":222,"Ğ":223,"ğ":224,"Ġ":225,"ġ":226,"Ģ":227,"ģ":228,"Ĥ":229,"ĥ":230,"Ħ":231,"ħ":232,"Ĩ":233,"ĩ":234,"Ī":235,"ī":236,"Ĭ":237,"ĭ":238,"Į":239,"į":240,"İ":241,"ı":242,"Ĳ":243,"ĳ":244,"Ĵ":245,"ĵ":246,"Ķ":247,"ķ":248,"ĸ":249,"Ĺ":250,"ĺ":251,"Ļ":252,"ļ":253,"Ľ":254,"ľ":255,"Ŀ":256,"ŀ":257,"Ł":258,"ł":259,"Ń":260,"ĠĠ":261,"ĠĠĠĠ":262,"ĉĉ":263,"re":264,"in":265,"Ċĉĉ":266,"se":267,"ĠĠĠ":268,"ĠĠĠĠĠĠĠĠ":269,"Ġ=":270,"Ċĉ":271,"Ġ(":272,"Ġ*":273,"er":274,"st":275,"on":276,"Ġt":277,");":278,"le":279,"if":280,"->":281,"ĊĠĠĠĠ":282,"at":283,"Ġc":284,"of":285,"or":286,"si":287,"me":288,"he":289,"Ġa":290,"ĊĠĠĠ":291,"int":292,"ge":293,"de":294,"Ġp":295,"Ġ{":296,"Ġ\"":297,"ct":298,"al":299,"Ġ-":300,"ra":301,"ur":302,"off":303,"en":304,"ce":305,"ĊĠĠĠĠĠ":306,"set":307,"it":308,"Ġthe":309,"ma":310,"Ċĉĉĉ":311,"ĊĠĠĠĠĠĠĠĠ":312,"ne":313,"Ġf":314,"Ċĉĉĉĉ":315,"un":316,"Ġi":317,"ret":318,"ms":319,"ze":320,"Ġ0":321,"Ġs":322,"ot":323,"ing":324,"ca":325,"rea":326,"Ġ&":327,"id":328,"LE":329,"ro":330,"pa":331,"urn":332,"size":333,"return":334,"/*":335,"ĊĊ":336,"ha":337,"bu":338,"pe":339,"Ġ*/":340,"Ġw":341,"ĊĠĠĠĠĠĠĠ":342,"offset":343,"ue":344,"Ġn":345,"lo":346,"ion":347,"ck":348,"rint":349,"co":350,"te":351,"str":352,"Ġif":353,"el":354,"buf":355,"case":356,"nd":357,"is":358,"ĠF":359,"err":360,"Ġ==":361,"ile":362,"))":363,"reak":364,"break":365,"xt":366,"ut":367,"la":368,"ss":369,"Ġ}":370,"op":371,"nt":372,"ch":373,"con":374,"ĊĠ":375,"ĠS":376,"Ġb":377,"ad":378,"ate":379,"gs":380,"Ġin":381,"Ġre":382,"mp":383,"Ġd":384,"et":385,"ILE":386,"ER":387,"ol":388,"Ġl":389,"::":390,"ser":391,"ed":392,"Ġm":393,"ĠFILE":394,"mage":395,"uct":396,"struct":397,"vi":398,"ĠI":399,"ĠN":400,"ul":401,"Ġimage":402,"len":403,"AG":404,"ĠĠĠĠĠĠĠĠĠĠĠĠ":405,"ĊĠĠĠĠĠĠĠĠĠĠĠ":406,"ar":407,"il":408,"li":409,"an":410,"Ġto":411,"Ġv":412,"Ġ<":413,"Ġ1":414,"UL":415,"tr":416,"Ġ!":417,"Ġsize":418,"IN":419,"OR":420,"Ġ+":421,"Ġint":422,"Ġth":423,"end":424,"ame":425,"up":426,"Ġ/*":427,"rame":428,"print":429,"ST":430,"ic":431,"gne":432,"SS":433,"Ġcon":434,"gned":435,"ON":436,"io":437,"\",":438,"ype":439,"Ġse":440,"ent":441,"Ġg":442,"(&":443,"Ġe":444,"Ġde":445,"Ġ(!":446,"har":447,"ULL":448,"file":449,"oid":450,"th":451,"sion":452,"()":453,"Ġof":454,"ata":455,"ly":456,"AT":457,"ME":458,"fo":459,"Ġ|":460,"new":461,"page":462,"ack":463,"pp":464,"Ġreturn":465,"sc":466,"ĠNULL":467,"Ġis":468,"sk":469,"dr":470,"ver":471,"Ġ&&":472,"Ġ!=":473,"ĊĊĠĠĠ":474,"Ġco":475,"ve":476,"ĠO":477,"32":478,"Re":479,"ĠD":480,"Ġoff":481,"text":482,"Ġu":483,"Ġx":484,"mem":485,"ase":486,"ĠP":487,"In":488,"ew":489,"ĊĊĉ":490,"ip":491,"Ġoffset":492,"Ġel":493,"Ġwe":494,"SE":495,"error":496,"OP":497,"ode":498,"so":499,"oto":500,"msg":501,"Ġ>":502,"ĠT":503,"ĊĠĠĠĠĠĠĠĠĠĠĠĠ":504,"Ġo":505,"alue":506,"AGE":507,"for":508,"ci":509,"get":510,"lags":511,"fa":512,"ong":513,"ment":514,"para":515,"ND":516,"ult":517,"void":518,"ĊĠĠĠĠĠĠĠĠĠĠĠĠĠĠĠĠ":519,"age":520,"cess":521,"ipe":522,"uest":523,"ns":524,"name":525,"ation":526,"unt":527,"sg":528,"ĠA":529,"signed":530,"unsigned":531,"Ġma":532,"ction":533,"try":534,"dd":535,"Ġst":536,"code":537,"64":538,"vm":539,"Ġan":540,"ig":541,"ta":542,"read":543,"ble":544,"do":545,"flags":546,"ix":547,"cp":548,"info":549,"rom":550,"EN":551,"data":552,"sh":553,"um":554,"vice":555,"AND":556,"SL":557,"ĠC":558,"ĊĉĠĠĠ":559,"PC":560,"Ġlong":561,"Ġthis":562,"ID":563,"ht":564,"ree":565,"regs":566,"Msg":567,"SI":568,"user":569,"Ġ((":570,"Ġchar":571,"ith":572,"Ċĉĉĉĉĉ":573,"Ġbe":574,"as":575,"ting":576,"ĊĊĠ":577,"view":578,"RE":579,"che":580,"params":581,"));":582,"++":583,"ok":584,"qu":585,"Ġand":586,"type":587,"Ġfor":588,"printf":589,"put":590,"Ġk":591,"rent":592,"__":593,"hci":594,"ĠĠĠĠĠĠĠĠĠĠĠĠĠĠĠĠĠĠĠĠ":595,"ĠSSL":596,"ĠIPC":597,"wa":598,"Ġ%":599,"ify":600,"ite":601,"pages":602,"Ġit":603,"all":604,"unk":605,"ERR":606,"SSAGE":607,"MESSAGE":608,"Ġelse":609,"();":610,"ie":611,"od":612,"ph":613,"quest":614,"ĠM":615,"Ġcol":616,"lock":617,"CK":618,"yte":619,"ĠE":620,"Ġprint":621,"iov":622,"ĠOn":623,"HAND":624,"hs":625,"Ġha":626,"Ġop":627,"Ġnot":628,"old":629,"Ġ||":630,"ome":631,"sz":632,"Ġge":633,"ali":634,"Ġwith":635,"frame":636,"res":637,"fault":638,"tings":639,"Ġcolor":640,"hdr":641,"lot":642,"yle":643,"Ġ'":644,"HANDLE":645,"AL":646,"goto":647,"Ġ2":648,"Ġor":649,"ĊĠĠĠĠĠĠĠĠĠĠĠĠĠĠĠ":650,"Ġbuf":651,"Ġerr":652,"ory":653,"Ġal":654,"HANDLER":655,"),":656,"00":657,"LO":658,"We":659,"ort":660,"ĊĉĉĉĠĠĠ":661,"Ġ<<":662,"Ġsizeof":663,"ometry":664,"Frame":665,"LS":666,"fs":667,"ml":668,"Ġgeometry":669,"CT":670,"ET":671,"Print":672,"byte":673,"du":674,"no":675,"not":676,"Ġon":677,"ress":678,"ine":679,"ĊĉĉĠĠĠ":680,"add":681,"ance":682,"AD":683,"rite":684,"Ġpa":685,"ĊĠĠĠĠĠĠĠĠĠĠĠĠĠĠĠĠĠĠĠĠ":686,"Ġfile":687,"SC":688,"_.":689,"ir":690,"Ġ*)":691,"ndle":692,"context":693,"okie":694,"ĠĠĠĠĠĠĠĠĠĠĠĠĠĠĠĠĠĠĠĠĠĠ":695,"HE":696,"OT":697,"Set":698,"ke":699,"ter":700,"Ġme":701,"ctp":702,"nel":703,"rocess":704,"const":705,"TLS":706,"nbuf":707,"review":708,"stance":709,"Ġtr":710,"loc":711,"Ġconst":712,"())":713,"IO":714,"mat":715,"conf":716,"Ġvalue":717,"St":718,"us":719,"Ġhe":720,"Ġne":721,"ath":722,"settings":723,"map":724,"Ġout":725,"bytes":726,"tion":727,"val":728,"xhci":729,"urce":730,"Ġlhs":731,"MA":732,"UN":733,"ele":734,"Ġfrom":735,"Ġdo":736,"aligned":737,"Con":738,"bo":739,"wit":740,"Ġtype":741,"count":742,"ATE":743,"skb":744,"witch":745,"free":746,"write":747,"Ġh":748,"ĠĠĠĠĠ":749,"Ċĉĉĉĉĉĉ":750,"Ġso":751,"addr":752,"cpu":753,"ched":754,"BU":755,"Get":756,"IC":757,"cu":758,"ext":759,"port":760,"qiov":761,"tra":762,"Ġlen":763,"alse":764,"VER":765,"able":766,"switch":767,"ence":768,"list":769,"lient":770,"quence":771,"ust":772,"vent":773,"Ġr":774,"rect":775,"Ġadd":776,"Ġgoto":777,"Ġex":778,"];":779,"fd":780,"os":781,"ore":782,"Ġca":783,"sig":784,"Ġas":785,"dex":786,"cap":787,"han":788,"SSL":789,"Ġdesc":790,"(\"":791,"DB":792,"Node":793,"RP":794,"_->":795,"back":796,"char":797,"ist":798,"pipe":799,"ssion":800,"ti":801,"Ġ4":802,"ĠV":803,"Ġstr":804,"ers":805,"Ġapp":806,"default":807,"Ġ\",":808,"arch":809,"Ġ+=":810,"ixel":811,"BE":812,"DE":813,"],":814,"ex":815,"fe":816,"gth":817,"ost":818,"Ġun":819,"Ġend":820,"ĠWe":821,"Ġpixel":822,"Ġsk":823,"pace":824,"ACK":825,"BIO":826,"LI":827,"app":828,"cur":829,"ccess":830,"rm":831,"Ġch":832,"ension":833,"Ġfalse":834,"ĊĉĉĉĉĠĠĠ":835,"Ġname":836,"cont":837,"Ġthat":838,"++)":839,"fp":840,"gN":841,"vel":842,"Ġmem":843,"ĠĠĠĠĠĠ":844,"reg":845,"ernel":846,"((":847,"IP":848,"Path":849,"kt":850,"pr":851,"red":852,"atic":853,"Ġcase":854,"ram":855,"sizeof":856,"ill":857,"source":858,"ERROR":859,"\")":860,"De":861,"MAT":862,"her":863,"wn":864,"Ġnew":865,"und":866,"Ġwh":867,"mple":868,"Ġsequence":869,"SET":870,"Ġopcode":871,"lots":872,"16":873,"IF":874,"LD":875,"NT":876,"ag":877,"fer":878,"oint":879,"out":880,"ure":881,"ys":882,"ĊĊĠĠĠĠĠĠĠ":883,"Ġstruct":884,"Ġerror":885,"init":886,"ator":887,"def":888,"roup":889,"Ġno":890,"Ġnum":891,"());":892,"asconf":893,"allback":894,"mma":895,"to":896,"Ġset":897,"Ġtra":898,"ity":899,"load":900,"ssage":901,"Ġmat":902,"ull":903,"lig":904,"ONF":905,"Input":906,"Ġelf":907,"ĊĠĠĠĠĠĠĠĠĠĠĠĠĠĠĠĠĠĠĠĠĠĠĠĠ":908,"Ġtrue":909,"FF":910,"di":911,"gic":912,"kvm":913,"lu":914,"sp":915,"ĠG":916,"Ġat":917,"level":918,"net":919,"Ġfa":920,"ted":921,"wap":922,"ĊĠĠĠĠĠĠĠĠĠĠĠĠĠĠĠĠĠĠĠĠĠĠĠ":923,"CHE":924,"base":925,"event":926,"gram":927,"ps":928,"space":929,"ped":930,"Ġmis":931,"Ġvoid":932,"thod":933,"Ġuser":934,"ĠTh":935,"form":936,"EX":937,"FOR":938,"em":939,"ial":940,"ize":941,"preview":942,"pkt":943,"ry":944,"style":945,"Ġpro":946,"low":947,"cop":948,"isp":949,"ader":950,"Ġcontext":951,"Ġxph":952,"Ġmisaligned":953,"\";":954,"..":955,"NOT":956,"Ob":957,"SD":958,"TH":959,"dp":960,"fn":961,"ob":962,"tmp":963,"vcpu":964,"Ġcop":965,"Ġpr":966,"ctxt":967,"handle":968,"Ġdata":969,"ING":970,"INT":971,"ending":972,"Ġ>=":973,"Ġaddress":974,"LIST":975,"mmand":976,"FORMAT":977,"AR":978,"BSD":979,"MAG":980,"ZE":981,"cm":982,"ff":983,"hl":984,"mm":985,"per":986,"rr":987,"ty":988,"tsc":989,"Ġ__":990,"ĠBIO":991,"static":992,"Ġcrm":993,"ord":994,"LEN":995,"pect":996,"last":997,"chunk":998,"ĠIf":999,"uld":1000,"(),":1001,"Ġcookie":1002,"Request":1003,"Ġall":1004,"LISTEN":1005,"'t":1006,"DI":1007,"DTLS":1008,"LAG":1009,"bio":1010,"ect":1011,"ied":1012,"just":1013,"sctp":1014,"value":1015,"search":1016,"Ġare":1017,"Ġpipe":1018,"Ġsctp":1019,"Ġcount":1020,"ĠASC":1021,"ĠSSLerr":1022,"Context":1023,"cument":1024,"dexed":1025,"ĠASCONF":1026,"\");":1027,"COR":1028,"Hel":1029,"LF":1030,"OFF":1031,"Pa":1032,"iv":1033,"ive":1034,"num":1035,"ply":1036,"pdu":1037,"Ġ:":1038,"Ġunsigned":1039,"reate":1040,"ink":1041,"ins":1042,"lear":1043,"Ġcan":1044,"mems":1045,"alloc":1046,"otal":1047,"bus":1048,"ĠINT":1049,"MEM":1050,"ĠPrint":1051,"OPM":1052,"sock":1053,"Ġ>>":1054,"ight":1055,"dow":1056,"SION":1057,"FrameMsg":1058,").":1059,"ION":1060,"XPath":1061,"ber":1062,"es":1063,"gc":1064,"group":1065,"noff":1066,"que":1067,"uint":1068,"inst":1069,"inue":1070,"ded":1071,"desc":1072,"rag":1073,"entry":1074,"idate":1075,"Ġbase":1076,"Ġregs":1077,"mpl":1078,"ils":1079,"namesz":1080,"Style":1081,"rectory":1082,"ACKET":1083,"Co":1084,"PE":1085,"PR":1086,"SH":1087,"TE":1088,"UE":1089,"cs":1090,"date":1091,"gate":1092,"mi":1093,"nbytes":1094,"sha":1095,"ĊĊĠĠĠĠĠĠĠĠĠĠĠ":1096,"Ġ?":1097,"Ġbreak":1098,"Ġmsg":1099,"Ġold":1100,"store":1101,"Ġcor":1102,"ally":1103,"ract":1104,"cookie":1105,"nder":1106,"ndidate":1107,"server":1108,"length":1109,"getu":1110,"mlXPath":1111,"Ġone":1112,"light":1113,"rror":1114,"CORE":1115,"'re":1116,"Ex":1117,"GTH":1118,"IG":1119,"Man":1120,"RT":1121,"Value":1122,"].":1123,"cmp":1124,"iew":1125,"irectory":1126,"lf":1127,"pro":1128,"ption":1129,"sr":1130,"uccess":1131,"zz":1132,"Ġ/":1133,"ĠU":1134,"Ġsi":1135,"Ġra":1136,"ĠĠĠĠĠĠĠ":1137,"request":1138,"onse":1139,"Ġpre":1140,"Ġper":1141,"iled":1142,"xtension":1143,"ĠSRP":1144,"ild":1145,"Ġsection":1146,"Ġxhci":1147,"soc":1148,"SIZE":1149,"Ġkvm":1150,"ĠELF":1151,"LOG":1152,"notify":1153,"Ġmethod":1154,"region":1155,"Ġtrans":1156,"CHECK":1157,"Obj":1158,"LENGTH":1159,"DTLSV":1160,"LAGS":1161,"NU":1162,"PAGE":1163,"Sele":1164,"VM":1165,"bad":1166,"ek":1167,"fid":1168,"gfn":1169,"job":1170,"ll":1171,"ures":1172,"ĠR":1173,"Ġup":1174,"Ġqiov":1175,"lean":1176,"Ġar":1177,"Ġpoint":1178,"other":1179,"pare":1180,"Ġnode":1181,"Ġnbytes":1182,"lose":1183,"col":1184,"lace":1185,"lazz":1186,"Ġrec":1187,"ary":1188,"lip":1189,"ĠDTLS":1190,"ĠDCHECK":1191,"param":1192,"viceMan":1193,"html":1194,"Ġ'\\":1195,"time":1196,"Ġpixels":1197,"ĠThis":1198,"copy":1199,"Ġcopy":1200,"'s":1201,"DID":1202,"Error":1203,"KVM":1204,"OO":1205,"Process":1206,"View":1207,"ap":1208,"doff":1209,"essage":1210,"mo":1211,"om":1212,"rip":1213,"use":1214,"vma":1215,"we":1216,"ĊĊĉĉ":1217,"Ġ8":1218,"ĠL":1219,"Ġret":1220,"ĠRe":1221,"ren":1222,"state":1223,"heck":1224,"Ġpack":1225,"Ġnbuf":1226,"Ġdon":1227,"Ġver":1228,"Ġsession":1229,"Ġ|=":1230,"Ġmagic":1231,"vmcs":1232,"cpy":1233,"address":1234,"ADD":1235,"Ġ*)&":1236,"matched":1237,"continue":1238,"dexedDB":1239,"Hello":1240,"memslots":1241,"(*":1242,"Elf":1243,"LA":1244,"MI":1245,"OU":1246,"On":1247,"PACKET":1248,"SER":1249,"To":1250,"cb":1251,"full":1252,"ib":1253,"nh":1254,"ould":1255,"reply":1256,"ery":1257,"atures":1258,"hen":1259,"Ġpdu":1260,"ception":1261,"Ġsh":1262,"coped":1263,"else":1264,"bufs":1265,"ops":1266,"Ġback":1267,"ĠIn":1268,"art":1269,"endif":1270,"STR":1271,"ONG":1272,"()->":1273,"Res":1274,"Ġuint":1275,"IndexedDB":1276,"ĊĠĠĠĠĠĠĠĠĠĠĠĠĠĠĠĠĠĠĠĠĠĠĠĠĠĠĠĠ":1277,"Ġany":1278,"Ġkernel":1279,"Ġhave":1280,"Web":1281,"BUG":1282,"Ġchunk":1283,"InputMsg":1284,"Ġpacket":1285,"':":1286,"):":1287,">>":1288,"AI":1289,"ECT":1290,"HO":1291,"IE":1292,"SG":1293,"SP":1294,"TR":1295,"]);":1296,"cnt":1297,"clu":1298,"flight":1299,"guest":1300,"ime":1301,"ick":1302,"kernel":1303,"min":1304,"ner":1305,"nge":1306,"npages":1307,"pc":1308,"ptr":1309,"pending":1310,"wd":1311,"Ġ3":1312,"Ġ~":1313,"Ġlo":1314,"ĠĠĠĠĠĠĠĠĠ":1315,"Ġtext":1316,"Ġad":1317,"Ġpage":1318,"urrent":1319,"Ġswap":1320,"string":1321,"bufsize":1322,"ĠFLAGS":1323,"ULT":1324,"Ġuse":1325,"ments":1326,"Ġstd":1327,"Ġhandle":1328,"addip":1329,"Ġheader":1330,"Ġapply":1331,"current":1332,"NOTE":1333,"OFFSET":1334,"CH":1335,"DATE":1336,"LONG":1337,"Message":1338,"NO":1339,"Size":1340,"Success":1341,"VAL":1342,"_)":1343,"aut":1344,"osi":1345,"olean":1346,"pwd":1347,"sa":1348,"sf":1349,"tent":1350,"xp":1351,"Ġ5":1352,"reset":1353,"instance":1354,"indow":1355,"session":1356,"lect":1357,"atch":1358,"Ġclazz":1359,"rams":1360,"max":1361,"Ġfd":1362,"row":1363,"rout":1364,"parent":1365,"buffer":1366,"Ġinstance":1367,"Ġrequest":1368,"service":1369,"struction":1370,"ĠID":1371,"Info":1372,"dds":1373,"igh":1374,"tain":1375,"Ġfilename":1376,"irst":1377,"Ġnext":1378,"valid":1379,"VERSION":1380,"sign":1381,"Ġdescsz":1382,"Ġmemory":1383,"sponse":1384,"HOST":1385,"*/":1386,"AP":1387,"Add":1388,"BLE":1389,"Is":1390,"Sc":1391,"SRP":1392,"and":1393,"clock":1394,"dir":1395,"host":1396,"im":1397,"nmi":1398,"process":1399,"ssize":1400,"ule":1401,"Ġle":1402,"resh":1403,"std":1404,"Ġtotal":1405,"Ġframe":1406,"Ġfrag":1407,"can":1408,"Ġwill":1409,"lob":1410,"cket":1411,"comp":1412,"ely":1413,"lay":1414,"Ġbo":1415,"Ġby":1416,"Ġres":1417,"Ġrender":1418,"ERN":1419,"AGIC":1420,"INVAL":1421,"memcpy":1422,"document":1423,"REG":1424,"ĠMAGIC":1425,"0000":1426,"Ġtry":1427,"valu":1428,"extension":1429,"trast":1430,"DEBUG":1431,"Ġskb":1432,"agick":1433,"Ġnumber":1434,"ndidates":1435,"badread":1436,"ript":1437,"reshold":1438,"%\"":1439,"=%":1440,"Bo":1441,"CE":1442,"CON":1443,"Callback":1444,"For":1445,"Op":1446,"PRE":1447,"bit":1448,"bil":1449,"client":1450,"close":1451,"from":1452,"ise":1453,"mode":1454,"node":1455,"sor":1456,"slot":1457,"ub":1458,"ĠX":1459,"Ġq":1460,"Ġms":1461,"Ġbu":1462,"ĠLOG":1463,"inis":1464,"ont":1465,"led":1466,"legate":1467,"Ġcurrent":1468,"iter":1469,"mar":1470,"nection":1471,"Ġfid":1472,"Ġsa":1473,"Ġsha":1474,"rou":1475,"par":1476,"Ġwhen":1477,"sert":1478,"serial":1479,"ĠNT":1480,"ĠNOT":1481,"ulate":1482,"ilure":1483,"Ġinter":1484,"this":1485,"Ġcomp":1486,"ĠPT":1487,"ĠThe":1488,"ĊĠĠĠĠĠĠĠĠĠĠĠĠĠĠĠĠĠĠĠ":1489,"ĊĠĠĠĠĠĠĠĠĠĠĠĠĠĠĠĠĠĠĠĠĠĠĠĠĠĠĠĠĠĠĠĠĠĠĠĠ":1490,"Ġnote":1491,"Ġbuffer":1492,"CTP":1493,"Printing":1494,"bool":1495,"trans":1496,"hannel":1497,"IFY":1498,"Ġprogram":1499,"queue":1500,"Ġperf":1501,"move":1502,"STRING":1503,"stderr":1504,"--":1505,">(":1506,"AM":1507,"From":1508,"Host":1509,"IB":1510,"IX":1511,"LY":1512,"OD":1513,"Ptr":1514,"Rule":1515,"Ser":1516,"YPE":1517,"]))":1518,"block":1519,"callback":1520,"emp":1521,"fix":1522,"hv":1523,"ich":1524,"ning":1525,"pre":1526,"rbio":1527,"sin":1528,"ĠH":1529,"Ġget":1530,"Ġsettings":1531,"ĠĠĠĠĠĠĠĠĠĠ":1532,"Ġ*(":1533,"ste":1534,"ork":1535,"deta":1536,"device":1537,"Ġput":1538,"Ġprocess":1539,"peer":1540,"ĠST":1541,"ĠSend":1542,"ĠSCTP":1543,"Ġdirectory":1544,"ard":1545,"Ġ16":1546,"ORT":1547,"ender":1548,"ATION":1549,"version":1550,"Ġcommand":1551,"ĠDe":1552,"Ġus":1553,"Ġxsh":1554,"agement":1555,"Ġmake":1556,"igin":1557,"tag":1558,"ĠClient":1559,"ĊĉĉĉĉĉĠĠĠ":1560,"nown":1561,"Ġonly":1562,"State":1563,"MAX":1564,"Ġlength":1565,"features":1566,"contro":1567,"fpu":1568,"Device":1569,"color":1570,"Ġrecord":1571,"viceManagement":1572,"OOB":1573,"IndexedDBMsg":1574,"rowser":1575,"Callbacks":1576,"ĠClientHello":1577,"(!":1578,")->":1579,"08":1580,"BA":1581,"Do":1582,"Data":1583,"EI":1584,"EL":1585,"File":1586,"Met":1587,"OL":1588,"OS":1589,"Page":1590,"Preview":1591,"Un":1592,"YLE":1593,"])":1594,"action":1595,"cce":1596,"gh":1597,"gin":1598,"mu":1599,"ous":1600,"sy":1601,"va":1602,"wh":1603,"yc":1604,"Ġj":1605,"ĠERR":1606,"Ġloc":1607,"ĠGet":1608,"Ġlevel":1609,"Ġlast":1610,"ĠKVM":1611,"lease":1612,"ified":1613,"ofile":1614,"sible":1615,"dev":1616,"raw":1617,"rary":1618,"next":1619,"Ġfsize":1620,"ĊĉĉĉĉĠĠĠĠĠ":1621,"unaligned":1622,"Ġsup":1623,"Ġscoped":1624,"cache":1625,"idx":1626,"root":1627,"round":1628,"haract":1629,"offsets":1630,"buff":1631,")))":1632,"ĠSE":1633,"Ġlist":1634,"args":1635,"Ġ<=":1636,"tring":1637,"Ġinto":1638,"STYLE":1639,"iove":1640,"Ġsend":1641,"pping":1642,"Ġxnh":1643,"memory":1644,"Instance":1645,"ipher":1646,"failure":1647,"ĠAdd":1648,"Ġmax":1649,"++);":1650,"unknown":1651,"Ġ22":1652,"HEAD":1653,"Ġneed":1654,"Ġstrcmp":1655,"Ġwhile":1656,"Ġmatched":1657,"psoffsets":1658,"pected":1659,"SHORT":1660,"Exe":1661,"Ġtransform":1662,"AIL":1663,"clude":1664,"Ġbool":1665,"inish":1666,"iovec":1667,")|":1668,"<<":1669,"Back":1670,"Create":1671,"DD":1672,"DP":1673,"ED":1674,"Impl":1675,"KERN":1676,"NET":1677,"Pos":1678,"SK":1679,"]<<":1680,"_);":1681,"ay":1682,"area":1683,"amp":1684,"ake":1685,"ailed":1686,"asoc":1687,"be":1688,"bl":1689,"browser":1690,"disp":1691,"line":1692,"ose":1693,"swap":1694,"tp":1695,"ui":1696,"xy":1697,"xmlXPath":1698,"Ġed":1699,"Ġview":1700,"Ġjust":1701,"refs":1702,"erator":1703,"stamp":1704,"Ġclient":1705,"Ġclear":1706,"Ġcheck":1707,"medi":1708,"ges":1709,"Ġph":1710,"url":1711,"ĊĠĠĠĠĠĠĠĠĠ":1712,"Ġflags":1713,"Ġfirst":1714,"Ġspe":1715,"ote":1716,"otify":1717,"cale":1718,"idth":1719,"rop":1720,"bug":1721,"Ġwas":1722,"log":1723,"elf":1724,"sso":1725,"Ġrel":1726,"Ġresponse":1727,"olver":1728,"Ġlink":1729,"Ġthreshold":1730,"rameter":1731,"printing":1732,"Resource":1733,"ĠxmlXPath":1734,"ĠTR":1735,"Ġob":1736,"++;":1737,"query":1738,"Ġ%\"":1739,"ĠEM":1740,"Ġprintf":1741,"Ġhas":1742,"alize":1743,"ression":1744,"Ġparent":1745,"Settings":1746,"Ġhere":1747,"MAP":1748,"BUF":1749,"cute":1750,"Ġstring":1751,"Ġwhich":1752,"LDATE":1753,"ĊĠĠĠĠĠĠĠĠĠĠĠĠĠĠĠĠĠĠĠĠĠĠĠĠĠĠĠĠĠĠĠĠ":1754,"emu":1755,"ĠPrintHost":1756,"PRINT":1757,"timestamp":1758,"Resolver":1759,"Boolean":1760,"bility":1761,"Ġqemu":1762,"details":1763,"viceManagementBack":1764,"ycle":1765,"HEADER":1766,"Execute":1767,"NETBSD":1768,"ĠPrintHostMsg":1769,"viceManagementBackend":1770,"And":1771,"AST":1772,"CSS":1773,"EK":1774,"EINVAL":1775,"Finish":1776,"Failed":1777,"HT":1778,"IV":1779,"OM":1780,"String":1781,"Tra":1782,"Type":1783,"UT":1784,"VIE":1785,"_(":1786,"ant":1787,"ava":1788,"ding":1789,"fx":1790,"gop":1791,"hw":1792,"kError":1793,"kely":1794,"lpage":1795,"mulate":1796,"nr":1797,"niov":1798,"point":1799,"ud":1800,"xph":1801,"ĠW":1802,"Ġhtml":1803,"Ġunknown":1804,"ref":1805,"rel":1806,"index":1807,"inflight":1808,"seg":1809,"erify":1810,"stro":1811,"Ġtime":1812,"ifi":1813,"Ġcreate":1814,"Ġcharact":1815,"Ġape":1816,"Ġasoc":1817,"Ġid":1818,"Ġibus":1819,"Ġsure":1820,"ream":1821,"rome":1822,"command":1823,"ell":1824,"lag":1825,"lar":1826,"ĠSet":1827,"ĠSIG":1828,"ated":1829,"Ġinit":1830,"Ġinvalid":1831,"Ġdis":1832,"Ġline":1833,"Ġmg":1834,"Ġmust":1835,"ilter":1836,"another":1837,"Ġcontrast":1838,"Ġext":1839,"Ġextension":1840,"Ġevalu":1841,"Ġdeter":1842,"ĠOS":1843,"Ġmay":1844,"ign":1845,"Ġformat":1846,"wait":1847,"Ġorigin":1848,"Ġparameter":1849,"Ġmessage":1850,"match":1851,"UNIX":1852,"trace":1853,"abled":1854,"exit":1855,"feren":1856,"Ġunix":1857,"pri":1858,"ager":1859,"define":1860,"EXT":1861,"Ġprpsoffsets":1862,"pector":1863,"insn":1864,"Comp":1865,"Select":1866,"Selection":1867,"fidp":1868,"ller":1869,"web":1870,"atcher":1871,"routing":1872,"Ġfragment":1873,"fixup":1874,"ĠDeviceManagementBackend":1875,"KERNEL":1876,"Ġviewport":1877,"Ġspec":1878,"VIEW":1879,"ference":1880,")\\":1881,"86":1882,"AULT":1883,"CM":1884,"FAIL":1885,"IA":1886,"Java":1887,"LLO":1888,"Ns":1889,"RL":1890,"She":1891,"UI":1892,"US":1893,"USER":1894,"_,":1895,"ab":1896,"ape":1897,"access":1898,"bk":1899,"ft":1900,"fin":1901,"flag":1902,"ga":1903,"hz":1904,"hit":1905,"hod":1906,"ia":1907,"image":1908,"iction":1909,"khz":1910,"lx":1911,"lat":1912,"llo":1913,"link":1914,"mine":1915,"oop":1916,"pid":1917,"place":1918,"rc":1919,"rs":1920,"rx":1921,"rit":1922,"tile":1923,"total":1924,"wo":1925,"ĠB":1926,"Ġ^":1927,"Ġvi":1928,"Ġread":1929,"Ġother":1930,"inotify":1931,"separ":1932,"Ġtsc":1933,"ating":1934,"Ġabo":1935,"intrs":1936,"debug":1937,"Ġpreview":1938,"align":1939,"enu":1940,"ceiv":1941,"main":1942,"magic":1943,"nect":1944,"Ġfprintf":1945,"union":1946,"unction":1947,"oter":1948,"has":1949,"ĠFAL":1950,"ĠFLD":1951,"opipe":1952,"opcode":1953,"child":1954,"Ġbad":1955,"Ġbyte":1956,"aders":1957,"Ġredu":1958,"Ġreference":1959,"Ġdoff":1960,"Ġimages":1961,"ĠĠĠĠĠĠĠĠĠĠĠĠĠĠĠ":1962,"Ġvcpu":1963,"INST":1964,"Ġ++":1965,"update":1966,"ics":1967,"Ġcontent":1968,"Ġgra":1969,"Ġgroup":1970,"Ġdevice":1971,"Ġdelegate":1972,"vert":1973,"ĠPAGE":1974,"ipipe":1975,"OPIN":1976,"msgpkt":1977,"ĠTSC":1978,"ĠADD":1979,"Ġstate":1980,"tab":1981,"table":1982,"ĠCh":1983,"wake":1984,"Ġoption":1985,"frames":1986,"resp":1987,"Ġcolors":1988,"nore":1989,"HELLO":1990,"config":1991,"Ġheaders":1992,"MASK":1993,"elements":1994,"Ġdoes":1995,"BUS":1996,"ICATION":1997,"Ġrc":1998,"Ġcap":1999,"signo":2000,"NodeSet":2001,"exception":2002,"Default":2003,"IFICATION":2004,"Ġmatch":2005,"...":2006,"handled":2007,"perf":2008,"Params":2009,"numintrs":2010,"descsz":2011,"StyleShe":2012,"Ġsimulate":2013,"Ġrange":2014,"NUM":2015,"SERVER":2016,"auth":2017,"sample":2018,"ĠIDR":2019,"AddResource":2020,"PREVIEW":2021,"Ġbut":2022,"mark":2023,"Rules":2024,"enderFrame":2025,"Method":2026,"syn":2027,"ĠTRUE":2028,"udio":2029,"Ġdetermine":2030,"ictionary":2031,"ĠFALSE":2032,"Ġreduce":2033,"StyleSheet":2034,"AddResourcePath":2035,"'\",":2036,";;":2037,"ABLE":2038,"ACE":2039,"Audio":2040,"DS":2041,"Dele":2042,"Disp":2043,"Directory":2044,"DOU":2045,"FP":2046,"FILE":2047,"FAULT":2048,"Image":2049,"Kit":2050,"La":2051,"LIN":2052,"Lib":2053,"ML":2054,"Magick":2055,"Menu":2056,"Not":2057,"ODE":2058,"Off":2059,"OMEM":2060,"Pop":2061,"Phdr":2062,"QU":2063,"ROU":2064,"UP":2065,"VID":2066,"VECT":2067,"WN":2068,"Window":2069,"XOR":2070,"\\\"":2071,"ave":2072,"aem":2073,"cv":2074,"cdp":2075,"clear":2076,"dup":2077,"ep":2078,"gnore":2079,"ient":2080,"ibus":2081,"ialize":2082,"long":2083,"nu":2084,"pread":2085,"path":2086,"pdate":2087,"rd":2088,"rup":2089,"slots":2090,"ts":2091,"tic":2092,"uid":2093,"wbio":2094,"writ":2095,"xsh":2096,"zer":2097,"Ġ;":2098,"ĠLD":2099,"Ġlow":2100,"Ġserver":2101,"reen":2102,"seq":2103,"Ġ*,":2104,"Ġtmp":2105,"Ġtable":2106,"Ġthan":2107,"Ġtwo":2108,"ifdef":2109,"attr":2110,"Ġcm":2111,"Ġcname":2112,"ors":2113,"method":2114,"Ġalig":2115,"inter":2116,"Ġpp":2117,"Ġpt":2118,"Ġpending":2119,"range":2120,"ursor":2121,"its":2122,"Ġthere":2123,"mapping":2124,"need":2125,"undef":2126,"candidates":2127,"idFinish":2128,"hand":2129,"Ġwar":2130,"Ġwrite":2131,"iss":2132,"Ġins":2133,"Ġinstruction":2134,"Ġremove":2135,"ilp":2136,"lic":2137,"ULO":2138,"INUS":2139,"Ġthrou":2140,"Ġseek":2141,"Ġgfx":2142,"Ġep":2143,"filesz":2144,"().":2145,"fore":2146,"Ġcould":2147,"ĠDIV":2148,"Ġudp":2149,"ipmap":2150,"OPS":2151,"OPOR":2152,"OPAND":2153,"OPDI":2154,"OPADD":2155,"OPXOR":2156,"Ġstore":2157,"tail":2158,"down":2159,"ENSION":2160,"ENOMEM":2161,"SIG":2162,"userspace":2163,"ways":2164,"phys":2165,"ĠMA":2166,"ĠOnSuccess":2167,"Ġwithin":2168,"ETYPE":2169,"PrintSettings":2170,"Ġ*)(":2171,"local":2172,"Ġhigh":2173,"Ġsocket":2174,"VERSE":2175,"Ġexp":2176,"Ġcapa":2177,"Ġasn":2178,"Ġchrome":2179,"IPE":2180,"IPLY":2181,"Ġelfhdr":2182,"lugin":2183,"spin":2184,"Ġfault":2185,"Ġfailed":2186,"formation":2187,"ĠcontextNode":2188,"NOTIFICATION":2189,"inspector":2190,"OPMULT":2191,"OPMOD":2192,"OPMINUS":2193,"install":2194,"UEST":2195,"shared":2196,"ĠELFMAG":2197,"Object":2198,"Ġarg":2199,"lacement":2200,"omic":2201,"Ġdone":2202,"Ġversion":2203,"currentframe":2204,"xpctxt":2205,"Script":2206,"Ġresult":2207,"Ġtryanother":2208,"Ġfidp":2209,"ĠNOTIFY":2210,"empty":2211,"CallbacksSuccess":2212,"BASE":2213,"cces":2214,"while":2215,"Ġlocation":2216,")|(":2217,"Ġedges":2218,"ssoci":2219,"segv":2220,"stroy":2221,"EXTENSION":2222,"separator":2223,"ceived":2224,"OPINVERSE":2225,"ĠADDIP":2226,"ĠChunk":2227,"ictionaryValue":2228,"Library":2229,"Offset":2230,"VIDE":2231,"VECTOR":2232,"aemon":2233,"zero":2234,"Ġalign":2235,"idFinishPrinting":2236,"Ġthrough":2237,"OPDIVIDE":2238,"OPMULTIPLY":2239,"OPMODULO":2240,"')":2241,"ACHE":2242,"BAD":2243,"CLA":2244,"Det":2245,"EM":2246,"Fo":2247,"GV":2248,"Med":2249,"NULL":2250,"OK":2251,"PAT":2252,"SY":2253,"SUN":2254,"TING":2255,"Tab":2256,"URE":2257,"UDP":2258,"UETYPE":2259,"]));":2260,"ach":2261,"andle":2262,"ails":2263,"bKit":2264,"cla":2265,"cipher":2266,"draw":2267,"epp":2268,"eded":2269,"filp":2270,"gid":2271,"jor":2272,"ject":2273,"kip":2274,"kSet":2275,"mod":2276,"mmap":2277,"ncmp":2278,"our":2279,"pol":2280,"rl":2281,"rt":2282,"sbuf":2283,"sub":2284,"ump":2285,"ubufs":2286,"ven":2287,"ved":2288,"window":2289,"ĊĊĠĠĠĠĠ":2290,"Ġ7":2291,"Ġ[":2292,"Ġ`":2293,"Ġen":2294,"Ġunt":2295,"Ġentry":2296,"Ġsign":2297,"ĠREG":2298,"render":2299,"instruction":2300,"sed":2301,"Ġ(__":2302,"Ġ(;;":2303,"ster":2304,"stem":2305,"start":2306,"Ġter":2307,"less":2308,"ift":2309,"ater":2310,"atomic":2311,"Ġcib":2312,"Ġchannel":2313,"ority":2314,"header":2315,"dent":2316,"Ġpos":2317,"Ġ\"%\"":2318,"alid":2319,"alled":2320,"ener":2321,"ceive":2322,"Ġthese":2323,"mask":2324,"mary":2325,"Ġfl":2326,"Ġfree":2327,"Ġfill":2328,"Ġflip":2329,"Ġfont":2330,"Ġfilter":2331,"unch":2332,"unli":2333,"Ġsame":2334,"ings":2335,"cause":2336,"LECT":2337,"Ġnon":2338,"Ġnmi":2339,"comm":2340,"util":2341,"utdown":2342,"ssl":2343,"open":2344,"contain":2345,"ĠSe":2346,"ĠSt":2347,"ĠSkip":2348,"Ġinfo":2349,"Ġinput":2350,"Ġreg":2351,"Ġmore":2352,"vious":2353,"arg":2354,"Ġ10":2355,"icy":2356,"Ġguest":2357,"Ġevent":2358,"thing":2359,"ppen":2360,"vers":2361,"ĠDidFinishPrinting":2362,"Init":2363,"ipped":2364,"SELECT":2365,"ENABLE":2366,"ĠCheck":2367,"Ġbecause":2368,"ĠMagick":2369,"ĠExtension":2370,"Ġhappen":2371,"ALL":2372,"ALUETYPE":2373,"Ġparams":2374,"irq":2375,"contextSize":2376,"Ġsock":2377,"Ġsource":2378,"Ġrun":2379,"Ġcandidates":2380,"hange":2381,"Nodes":2382,"ĠVM":2383,"ĠVALUETYPE":2384,"ĠWebKit":2385,"mplete":2386,"SETTING":2387,"IFT":2388,"Ġnoise":2389,"netbk":2390,"copied":2391,"ĠcontextObj":2392,"order":2393,"ivate":2394,"StyleResolver":2395,"PRO":2396,"SHIFT":2397,"shake":2398,"Ġradi":2399,"Ġprepare":2400,"PAGES":2401,"collect":2402,"viceManager":2403,"apti":2404,"Ġshould":2405,"ĊĠĠĠĠĠĠĠĠĠĠĠĠĠĠĠĠĠĠĠĠĠĠĠĠĠĠĠĠĠĠ":2406,"ĊĠĠĠĠĠĠĠĠĠĠĠĠĠĠĠĠĠĠĠĠĠĠĠĠĠĠĠĠĠĠĠ":2407,"Ġlook":2408,"Ġadjust":2409,"osition":2410,"imit":2411,"IBus":2412,"control":2413,"Document":2414,"Pages":2415,"Ġsupport":2416,"ĠAddFile":2417,"aybe":2418,"media":2419,"ĠhasNs":2420,"Ġevaluation":2421,"Ġoriginator":2422,"priority":2423,"CLASS":2424,"Details":2425,"Media":2426,"SUNW":2427,"epper":2428,"kSetting":2429,"Ġuntil":2430,"Ġ(;;)":2431,"unlikely":2432,"container":2433,"SELECTOR":2434,"ĠhasNsNodes":2435,")-":2436,")((":2437,"10":2438,"Ad":2439,"AIN":2440,"BJ":2441,"CI":2442,"CS":2443,"CLO":2444,"Cursor":2445,"Dis":2446,"DSC":2447,"EP":2448,"FLO":2449,"GR":2450,"Handle":2451,"IS":2452,"IT":2453,"Mod":2454,"Na":2455,"PLA":2456,"Qu":2457,"Ran":2458,"Sh":2459,"So":2460,"The":2461,"Text":2462,"Verify":2463,"WR":2464,"[]":2465,"ban":2466,"cd":2467,"cha":2468,"call":2469,"ccm":2470,"cycle":2471,"db":2472,"daemon":2473,"eb":2474,"fsize":2475,"ful":2476,"fter":2477,"frag":2478,"ger":2479,"goff":2480,"gree":2481,"iz":2482,"ken":2483,"ld":2484,"ler":2485,"mer":2486,"ny":2487,"nal":2488,"og":2489,"pen":2490,"pctxt":2491,"pmu":2492,"tx":2493,"ual":2494,"ush":2495,"udp":2496,"vb":2497,"xcap":2498,"xnh":2499,"yload":2500,"recv":2501,"ind":2502,"input":2503,"ĊĉĉĠ":2504,"sem":2505,"ĠĠĠĠĠĠĠĠĠĠĠ":2506,"ĊĉĠĠĠĠ":2507,"Ġ(*":2508,"eration":2509,"stat":2510,"Ġta":2511,"Ġtxp":2512,"lete":2513,"ific":2514,"atter":2515,"orph":2516,"orted":2517,"oriz":2518,"hello":2519,"Ġaut":2520,"Ġavoid":2521,"Ġaccess":2522,"Ġaga":2523,"Ġafter":2524,"ints":2525,"Ġpkt":2526,"aling":2527,"Ġ-=":2528,"raints":2529,"Ġflo":2530,"unlock":2531,"Ġio":2532,"retch":2533,"Ġsc":2534,"Ġsu":2535,"Ġsy":2536,"Ġslen":2537,"reas":2538,"Ġ&=":2539,"rogram":2540,"pam":2541,"paque":2542,"payload":2543,"Ġwidth":2544,"Ġnull":2545,"ndom":2546,"xtract":2547,"ution":2548,"option":2549,"chr":2550,"connection":2551,"Ġinc":2552,"Ġinclude":2553,"Ġdi":2554,"Ġdir":2555,"Ġdisp":2556,"Ġdcb":2557,"Ġdrop":2558,"etch":2559,"olicy":2560,"Ġlater":2561,"Ġmod":2562,"lib":2563,"Ġvm":2564,"STATE":2565,"icate":2566,"Ġcontain":2567,"Ġconnection":2568,"Ġsent":2569,"Ġsearch":2570,"Ġselect":2571,"Ġeven":2572,"Ġdegree":2573,"ther":2574,"verse":2575,"verify":2576,"Ġcode":2577,"ĠOFF":2578,"ĠOBJ":2579,"ĠDo":2580,"ĠDDSC":2581,"Ġulen":2582,"Ġxpctxt":2583,"ĠPOL":2584,"ĊĊĉĠĠĠ":2585,"Ġover":2586,"Ġown":2587,"cib":2588,"ĠAV":2589,"ĠAl":2590,"Ġstart":2591,"vmx":2592,"ENT":2593,"ENSSL":2594,"shift":2595,"ĠCAST":2596,"http":2597,"Ġ(((":2598,"ither":2599,"Ġbeen":2600,"Ġbefore":2601,"++,":2602,"qual":2603,"putMethod":2604,"ĠMake":2605,"ĠExtract":2606,"ĠOnly":2607,"Ġoperator":2608,"oldfs":2609,"result":2610,"Ġalways":2611,"000":2612,"PrintPreview":2613,"bytecnt":2614,"note":2615,"Ġpast":2616,"contextObj":2617,"OTS":2618,"Ġvalues":2619,"UNK":2620,"element":2621,"Ġhoriz":2622,"ĊĉĉĉĉĉĉĠ":2623,"VERIFY":2624,"Ġexpected":2625,"caps":2626,"Ġskip":2627,"cursor":2628,"Ġchild":2629,"prRes":2630,"DeviceManager":2631,"MATCH":2632,"output":2633,"ĠGNU":2634,"Ġfail":2635,"ĠThings":2636,"tmpdb":2637,"Ġcopied":2638,"INTR":2639,"MAGIC":2640,"ector":2641,"Pass":2642,"Ġcannot":2643,"insta":2644,"Ġcorrect":2645,"Ġcorrup":2646,"prop":2647,"src":2648,"srp":2649,"ĠRenderFrame":2650,"Ġreclen":2651,"Processing":2652,"Ġvertic":2653,"ADDR":2654,"HelloVerify":2655,"ĠInputMethod":2656,"WebView":2657,"SPACE":2658,"nerate":2659,"Ġloop":2660,"router":2661,"ddscaps":2662,"APS":2663,"bitmap":2664,"Ġshared":2665,"route":2666,"ĊĠĠĠĠĠĠĠĠĠĠĠĠĠĠĠĠĠĠĠĠĠĠĠĠĠĠĠĠĠĠĠĠĠĠĠĠĠĠĠ":2667,"--)":2668,"orker":2669,"controller":2670,"blur":2671,"Ġreloffset":2672,"ExecuteRequest":2673,"Trans":2674,"reln":2675,"Ġcharacter":2676,"Ġidx":2677,"JavaScript":2678,"Ġabout":2679,"Ġbytes":2680,"Ġgraph":2681,"wakeup":2682,"Ġdoesn":2683,"sync":2684,"AudioInput":2685,"Dispatcher":2686,"DOUBLE":2687,"writel":2688,"issue":2689,"Ġexpression":2690,"Ġcapability":2691,"ssociation":2692,"Ġpossible":2693,"Ġradius":2694,"MediaDeviceManager":2695,"FLOAT":2696,"Navi":2697,"PLAIN":2698,"Range":2699,"banner":2700,"chain":2701,"ĠOBJECT":2702,"ĠDDSCAPS":2703,"Ġhorizont":2704,"HelloVerifyRequest":2705,"JavaScriptExecuteRequest":2706,"';":2707,")(":2708,")];":2709,".%":2710,".\";":2711,"90":2712,":\\":2713,"AN":2714,"Aut":2715,"AME":2716,"App":2717,"AUT":2718,"BP":2719,"Bus":2720,"CR":2721,"Clear":2722,"Channel":2723,"CIB":2724,"Did":2725,"DON":2726,"Free":2727,"False":2728,"GC":2729,"GNU":2730,"He":2731,"HPAGE":2732,"HCI":2733,"IZE":2734,"ITE":2735,"LV":2736,"List":2737,"Loop":2738,"MSG":2739,"MODE":2740,"No":2741,"Net":2742,"NOR":2743,"Name":2744,"NAME":2745,"OID":2746,"PU":2747,"PLE":2748,"Pipe":2749,"PSTRING":2750,"Plugin":2751,"QEM":2752,"SR":2753,"SMATCH":2754,"TION":2755,"USE":2756,"URL":2757,"Update":2758,"VBASE":2759,"XT":2760,"][":2761,"asi":2762,"act":2763,"aded":2764,"by":2765,"blob":2766,"cmsg":2767,"ds":2768,"dst":2769,"die":2770,"ec":2771,"eatures":2772,"fra":2773,"fprintf":2774,"flip":2775,"ground":2776,"ibu":2777,"lse":2778,"lite":2779,"lhs":2780,"msi":2781,"nted":2782,"ow":2783,"pi":2784,"pos":2785,"pmatch":2786,"push":2787,"ported":2788,"rv":2789,"rbuf":2790,"rmap":2791,"rofile":2792,"sl":2793,"slen":2794,"sum":2795,"sys":2796,"ten":2797,"ttp":2798,"ux":2799,"uge":2800,"vif":2801,"win":2802,"ward":2803,"xml":2804,"xff":2805,"ĊĊĉĉĉ":2806,"ĊĊĉĉĉĉ":2807,"Ġload":2808,"ĠLISTEN":2809,"Ġroot":2810,"ĠHelloVerifyRequest":2811,"req":2812,"rer":2813,"repare":2814,"receive":2815,"ince":2816,"inux":2817,"send":2818,"sent":2819,"Ġ**":2820,"erge":2821,"stretch":2822,"one":2823,"ately":2824,"Ġclock":2825,"Ġclip":2826,"Ġcipher":2827,"Ġcycle":2828,"ofs":2829,"orb":2830,"sid":2831,"side":2832,"sity":2833,"mented":2834,"head":2835,"Ġap":2836,"Ġact":2837,"delegate":2838,"destroy":2839,"derer":2840,"Ġpread":2841,"Ġport":2842,"Ġpath":2843,"Ġpatter":2844,"Ġ\"%":2845,"ctx":2846,"ctrl":2847,"Ġ--":2848,"rar":2849,"ray":2850,"raft":2851,"cel":2852,"itle":2853,"Ġthen":2854,"mag":2855,"major":2856,"ness":2857,"Ġfv":2858,"ĊĉĉĉĉĠĠĠĠ":2859,"unix":2860,"unmap":2861,"Ġignore":2862,"Ġsg":2863,"Ġsl":2864,"Ġspace":2865,"Ġscm":2866,"packet":2867,"Ġnla":2868,"Ġnpages":2869,"loaded":2870,"complete":2871,"temp":2872,"teger":2873,"errup":2874,"lack":2875,"opy":2876,"operator":2877,"contrast":2878,"ĠSIZE":2879,"Ġbl":2880,"Ġbit":2881,"Ġbet":2882,"adjust":2883,"Ġinflight":2884,"Ġrecur":2885,"Ġdl":2886,"Ġdv":2887,"Ġdif":2888,"olution":2889,"Ġli":2890,"Ġmo":2891,"Ġmsi":2892,"Ġmult":2893,"ĠIO":2894,"ĠIt":2895,"ĠĠĠĠĠĠĠĠĠĠĠĠĠ":2896,"ĠĠĠĠĠĠĠĠĠĠĠĠĠĠ":2897,"Ġvma":2898,"INC":2899,"printk":2900,"printer":2901,"STAR":2902,"Ġconvert":2903,"Ġseq":2904,"ĠgN":2905,"Ġgo":2906,"Ġgbo":2907,"Ġdeta":2908,"Ġdefin":2909,"harpen":2910,"footer":2911,"Ġcom":2912,"ĠOP":2913,"Rect":2914,"ĠDictionaryValue":2915,"ĠPACKET":2916,"Integer":2917,"sole":2918,"msgpayload":2919,"ĠTo":2920,"ĠTOD":2921,"ĠTLV":2922,"ĊĠĠĠĠĠĠĠĠĠĠĠĠĠ":2923,"Ġos":2924,"Ġossl":2925,"fact":2926,"face":2927,"ĊĠĠĠĠĠĠĠĠĠĠĠĠĠĠĠĠĠĠ":2928,"Ġannot":2929,"ready":2930,"readers":2931,"doc":2932,"datagram":2933,"umber":2934,"ĠCONF":2935,"IDB":2936,"SIZ":2937,"Ġchars":2938,"Ġbelow":2939,"asn":2940,"REQ":2941,"REACHE":2942,"check":2943,"oken":2944,"ware":2945,"Ġits":2946,"ĠMSG":2947,"ĠMaybe":2948,"Ġhand":2949,"Ġ20":2950,"Ġ24":2951,"Ġerrno":2952,"LOAD":2953,"Ġpam":2954,"Ġparam":2955,"Ġnet":2956,"Cont":2957,"bound":2958,"Ġright":2959,"Ġexception":2960,"Ġcache":2961,"Ġasconf":2962,"(\"\\":2963,"ister":2964,"Ġunaligned":2965,"LIB":2966,"fptr":2967,"vely":2968,"redicate":2969,"Ġtrace":2970,"ĊĠĠĠĠĠĠĠĠĠĠĠĠĠĠĠĠĠĠĠĠĠĠĠĠĠĠĠ":2971,"Ġuserspace":2972,"Observer":2973,"Ġprimit":2974,"ARC":2975,"Ġcounter":2976,"Helper":2977,"memslot":2978,"ĠPrintMsg":2979,"ĠPrintWebView":2980,"installed":2981,"mpling":2982,"TEND":2983,"proxy":2984,"Ġ//":2985,"ĠUn":2986,"Ġpointer":2987,"ween":2988,"statem":2989,"Ġdonote":2990,"MISMATCH":2991,"SPARC":2992,"cluding":2993,"minor":2994,"Ġhandled":2995,"addiphdr":2996,"MessageLoop":2997,"NOWN":2998,"auto":2999,"dirty":3000,"cannot":3001,"INVALID":3002,"ForPrint":3003,"nodeTab":3004,"ĠNOTREACHE":3005,"Service":3006,"blocks":3007,"stead":3008,"devices":3009,"Ġputs":3010,"Ġcommands":3011,"Ġusing":3012,"Ġlevels":3013,"ĠSEEK":3014,"displacement":3015,"Ġrelation":3016,"BUFSIZ":3017,"CSSDefault":3018,"UTF":3019,"ifier":3020,"Ġcreated":3021,"Ġinitial":3022,"Ġlines":3023,"Ġparameters":3024,"Ġspecified":3025,"hitlist":3026,"maining":3027,"response":3028,"NodeSetClear":3029,"StyleSheets":3030,"Delete":3031,"Launch":3032,"LINE":3033,"handshake":3034,"Ġwarn":3035,"ĠMAX":3036,"subregion":3037,"Ġtermin":3038,"ĠSequence":3039,"viously":3040,"Ġrunning":3041,"controllen":3042,"GRAM":3043,"Query":3044,"Source":3045,"WRITE":3046,"callchain":3047,"udplite":3048,"Ġtask":3049,"Ġmodified":3050,"Ġdegrees":3051,"Ġowner":3052,"UNKNOWN":3053,"Ġcorrupted":3054,"ĠInputMethodLibrary":3055,"Ġgraphic":3056,"AUTO":3057,"QEMU":3058,"frags":3059,"repareFrame":3060,"Ġpattern":3061,"operators":3062,"Ġbetween":3063,"Ġgboolean":3064,"Ġdefined":3065,"ĠTODO":3066,"ĠCONFIG":3067,"Ġprimitive":3068,"ĠPrintWebViewHelper":3069,"ĠNOTREACHED":3070,"CSSDefaultStyleSheets":3071,"%.":3072,"',":3073,"36":3074,"80000":3075,"AK":3076,"AU":3077,"Acces":3078,"BY":3079,"By":3080,"BER":3081,"Blob":3082,"CB":3083,"CU":3084,"CLE":3085,"Close":3086,"COO":3087,"CAST":3088,"Copy":3089,"DAT":3090,"Dial":3091,"DGRAM":3092,"Ed":3093,"Ext":3094,"Ehdr":3095,"EBSD":3096,"Extension":3097,"FO":3098,"FID":3099,"FRE":3100,"FLAG":3101,"FLAGS":3102,"Function":3103,"GUEST":3104,"Ite":3105,"Imple":3106,"ILD":3107,"KIE":3108,"MT":3109,"New":3110,"NMI":3111,"OF":3112,"Or":3113,"OSI":3114,"PER":3115,"PrepareFrame":3116,"Se":3117,"Scoped":3118,"Te":3119,"Th":3120,"Tree":3121,"TYPE":3122,"TAIN":3123,"UM":3124,"UST":3125,"UCT":3126,"VSC":3127,"Valid":3128,"Vector":3129,"association":3130,"bn":3131,"bage":3132,"bcode":3133,"cr":3134,"css":3135,"cname":3136,"chan":3137,"clazz":3138,"df":3139,"dop":3140,"draft":3141,"eq":3142,"ev":3143,"eer":3144,"evalu":3145,"fl":3146,"ffe":3147,"ging":3148,"gation":3149,"gress":3150,"hn":3151,"ian":3152,"imary":3153,"kfree":3154,"kaddr":3155,"ls":3156,"lon":3157,"lpages":3158,"mit":3159,"ming":3160,"nl":3161,"nof":3162,"nor":3163,"noffset":3164,"nmp":3165,"ndef":3166,"nImage":3167,"ou":3168,"ound":3169,"olog":3170,"pha":3171,"pth":3172,"run":3173,"rot":3174,"rong":3175,"runt":3176,"rix":3177,"right":3178,"snotify":3179,"tor":3180,"tree":3181,"ually":3182,"xa":3183,"xb":3184,"xattr":3185,"ĊĠĠ":3186,"Ġ_":3187,"ĠON":3188,"Ġlock":3189,"ĠLEN":3190,"Ġqueue":3191,"ĠBUF":3192,"Ġsigno":3193,"Ġ...":3194,"Ġ\\\"":3195,"Ġzero":3196,"Ġreas":3197,"ĠQEMU":3198,"resid":3199,"inode":3200,"indi":3201,"insert":3202,"include":3203,"onize":3204,"lent":3205,"ifndef":3206,"ative":3207,"Ġcr":3208,"Ġcbuf":3209,"Ġcmsg":3210,"Ġcallback":3211,"sibility":3212,"silon":3213,"Ġacces":3214,"dest":3215,"Ġpla":3216,"alc":3217,"random":3218,"uration":3219,"urround":3220,"ens":3221,"enabled":3222,"Ġthem":3223,"ĊĉĉĉĠĠĠĠ":3224,"nest":3225,"neous":3226,"Ġfix":3227,"Ġfound":3228,"Ġfsnotify":3229,"ĊĉĉĉĉĠĠ":3230,"unc":3231,"unOS":3232,"Ġip":3233,"Ġimp":3234,"Ġimple":3235,"Ġident":3236,"mslots":3237,"Ġsat":3238,"Ġssize":3239,"Ġsbuf":3240,"Ġsome":3241,"Ġslot":3242,"Ġssl":3243,"cast":3244,"rease":3245,"LELONG":3246,"LESHORT":3247,"roller":3248,"pass":3249,"papi":3250,"Ġwork":3251,"Ġwant":3252,"Ġwrong":3253,"Ġnoffset":3254,"Ġnto":3255,"Ġnblocks":3256,"core":3257,"tex":3258,"bufm":3259,"lays":3260,"ntal":3261,"cond":3262,"ĠSHT":3263,"ĠSave":3264,"ĠSince":3265,"ĠSunOS":3266,"Ġbcode":3267,"Ġborder":3268,"Ġindex":3269,"Ġindexed":3270,"Ġinformation":3271,"Ġincluding":3272,"Ġreply":3273,"Ġreceived":3274,"Ġdt":3275,"Ġdump":3276,"Ġdds":3277,"eturn":3278,"ERY":3279,"Ġmin":3280,"Ġmerge":3281,"ĠNon":3282,"ĠNOFFSET":3283,"arbage":3284,"ily":3285,"Ġvar":3286,"Ġ11":3287,"INFO":3288,"ORY":3289,"Ġthus":3290,"Ġthose":3291,"upMenu":3292,"printable":3293,"STAT":3294,"STOP":3295,"ically":3296,"icient":3297,"Ġcont":3298,"Ġconside":3299,"iocb":3300,"Ġgarbage":3301,"Ġever":3302,"Ġeach":3303,"Ġequal":3304,"Ġeffe":3305,"Ġdev":3306,"Ġdelete":3307,"Ġ(!(":3308,"threshold":3309,"MELONG":3310,"scm":3311,"Ġisprint":3312,"verlays":3313,"ĠOK":3314,"Response":3315,"Release":3316,"Replace":3317,"ĠDB":3318,"Ġxen":3319,"Ġxcap":3320,"memset":3321,"ĠPepper":3322,"ĠProgram":3323,"iple":3324,"Ġoffsets":3325,"SENT":3326,"SEAR":3327,"Ġoc":3328,"force":3329,"cision":3330,"fasync":3331,"ĊĠĠĠĠĠĠĠĠĠĠĠĠĠĠĠĠĠ":3332,"Ġman":3333,"Ġmach":3334,"Ġmapping":3335,"Ġstyle":3336,"Ġstatic":3337,"doorb":3338,"romatic":3339,"shal":3340,"should":3341,"SLOTS":3342,"ĠCon":3343,"PCI":3344,"RESS":3345,"okmark":3346,"qui":3347,"ies":3348,"ĠMUST":3349,"ĠOnSelect":3350,"Ġnotify":3351,"Ġnotes":3352,"Ġ'%.":3353,"Ġbufsize":3354,"Ġalso":3355,"Ġalong":3356,"Ġallow":3357,"fsnotify":3358,"CTRL":3359,"PrintPages":3360,"ancel":3361,"ĊĠĠĠĠĠĠĠĠĠĠĠĠĠĠĠĠĠĠĠĠĠ":3362,"contextNode":3363,"Ġmeas":3364,"constraints":3365,"locate":3366,"IOVector":3367,"Stream":3368,"Ġneeded":3369,"vallen":3370,"UNC":3371,"Content":3372,"ATED":3373,"Ġhit":3374,"BUILD":3375,"portRules":3376,"Ġrv":3377,"Ġcandidate":3378,"siginfo":3379,"hance":3380,"Ġdescript":3381,"DBG":3382,"isting":3383,"ĠVMA":3384,"ĠVerify":3385,"Ġstrncmp":3386,"Ġstripped":3387,"Ġappend":3388,"BELONG":3389,"BESTRING":3390,"BESHORT":3391,"apps":3392,"Ġchromatic":3393,"Ġnamesz":3394,"Ġnamespace":3395,"Ġmemcpy":3396,"Ġwho":3397,"InputContext":3398,"ĊĠĠĠĠĠĠĠĠĠĠĠĠĠĠĠĠĠĠĠĠĠĠĠĠĠ":3399,"ĊĠĠĠĠĠĠĠĠĠĠĠĠĠĠĠĠĠĠĠĠĠĠĠĠĠĠĠĠĠĠĠĠĠ":3400,"Ġattemp":3401,"events":3402,"Ġproble":3403,"Ġproxy":3404,"aderFo":3405,"tmpclient":3406,"Ġprofile":3407,"Ġprimary":3408,"INTERN":3409,"cmd":3410,"fficient":3411,"mmu":3412,"DISP":3413,"ContextSize":3414,"ContextMenu":3415,"Paste":3416,"MEMORY":3417,"Command":3418,"PEEK":3419,"shadow":3420,"Ġmsglen":3421,"ĠoldContext":3422,"Ġcorresp":3423,"cookiepkt":3424,"Exception":3425,"srcu":3426,"uccessful":3427,"ĠUDP":3428,"Ġsilent":3429,"ĠELFCLASS":3430,"Ġtransport":3431,"eked":3432,"ĠRCAST":3433,"ĠReturn":3434,"Ġupdate":3435,"Ġargs":3436,"ViewportRules":3437,"used":3438,"ĠLoop":3439,"ĠLinux":3440,"ĠRelease":3441,"renderer":3442,"ADDRESS":3443,"MIB":3444,"OnUI":3445,"Ġbackground":3446,"STRUCT":3447,"WebFrame":3448,"Ġadapti":3449,"Ġhandles":3450,"osite":3451,"ositor":3452,"safe":3453,"IsValid":3454,"Ġlea":3455,"Ġfraglen":3456,"layer":3457,"layers":3458,"Ġresolution":3459,"REGEX":3460,"CONTAIN":3461,"CONSTRUCT":3462,"Open":3463,"ĠXHCI":3464,"marshal":3465,"Ġsampling":3466,"Ġshadow":3467,"Ġinternal":3468,"Ġnotecount":3469,"transport":3470,"RuleSet":3471,"prepare":3472,"DeviceInfo":3473,"Doc":3474,"DataDirectory":3475,"mutex":3476,"Ġlocal":3477,"buffers":3478,"ĠSEGV":3479,"ĠmaxPos":3480,"Ġneeds":3481,"elfcla":3482,"Ġobject":3483,"Ġobviously":3484,"AndView":3485,"Track":3486,"nrbufs":3487,"ĠWhen":3488,"ifiable":3489,"Ġcharacters":3490,"large":3491,"ĠSetState":3492,"Ġdisca":3493,"Ġextra":3494,"FAILURE":3495,"latten":3496,"linking":3497,"Ġstateless":3498,"Ġoptions":3499,"NUMBER":3500,"FILENO":3501,"PopupMenu":3502,"QUERY":3503,"numslots":3504,"ĠLDX":3505,"Ġcmlen":3506,"interp":3507,"needs":3508,"Ġinsn":3509,"ipmaps":3510,"ipmapcount":3511,"inspectorWindow":3512,"OffsetType":3513,"SYSENT":3514,"Ġ`%":3515,"enerate":3516,"SETTINGS":3517,"collectViewportRules":3518,"Ġlookup":3519,"kSettingHe":3520,"Disabled":3521,"Should":3522,"orpholog":3523,"Ġagainst":3524,"pamh":3525,"options":3526,"chronize":3527,"Ġdistance":3528,"ĠPOLL":3529,"Transaction":3530,"Navigation":3531,"Auth":3532,"DONE":3533,"FreeBSD":3534,"NetBSD":3535,"ibute":3536,"magerror":3537,"Ġblur":3538,"Ġmultiple":3539,"STARTEND":3540,"ĠOPENSSL":3541,"factory":3542,"Ġannotate":3543,"REQUEST":3544,"Ġterminating":3545,"80000000":3546,"Accessibility":3547,"BYTE":3548,"COOKIE":3549,"Dialog":3550,"Edit":3551,"FREEBSD":3552,"GUESTDBG":3553,"Implemented":3554,"OSITION":3555,"Test":3556,"Thread":3557,"VSCSI":3558,"dophn":3559,"nofid":3560,"runtime":3561,"ĠQEMUIOVector":3562,"indirect":3563,"Ġcmsghdr":3564,"Ġplain":3565,"ĠNOFFSETS":3566,"STATS":3567,"Ġconsidered":3568,"Ġeffect":3569,"ReleaseObject":3570,"SEARCH":3571,"doorbell":3572,"Ġdescriptors":3573,"Ġchromaticity":3574,"Ġattempted":3575,"aderFooter":3576,"INTERNAL":3577,"DISPOSITION":3578,"Ġcorrespon":3579,"Ġsilently":3580,"CONTAINER":3581,"elfclass":3582,"PopupMenuIte":3583,"SYSENTER":3584,"kSettingHeaderFooter":3585,"orphology":3586,"!!":3587,"!':":3588,"\"))":3589,"24":3590,"386":3591,"390":3592,"<':":3593,"=':":3594,">':":3595,"At":3596,"Act":3597,"Be":3598,"Bel":3599,"Base":3600,"BLO":3601,"CL":3602,"CAND":3603,"Call":3604,"CLI":3605,"Current":3606,"CAP":3607,"COM":3608,"Change":3609,"Cancel":3610,"CATED":3611,"DO":3612,"DY":3613,"DET":3614,"Draw":3615,"DictionaryValue":3616,"EC":3617,"END":3618,"Eval":3619,"Event":3620,"Fix":3621,"Fund":3622,"Features":3623,"GH":3624,"GIN":3625,"GET":3626,"GFP":3627,"Generate":3628,"HM":3629,"IR":3630,"Ig":3631,"IST":3632,"ISS":3633,"JS":3634,"Ke":3635,"LL":3636,"Mo":3637,"MAL":3638,"MSR":3639,"NN":3640,"NR":3641,"NON":3642,"NING":3643,"NECT":3644,"Native":3645,"Out":3646,"Pro":3647,"Post":3648,"PTR":3649,"Prop":3650,"Plat":3651,"PIPE":3652,"Position":3653,"Pepper":3654,"Policy":3655,"Profile":3656,"Pdf":3657,"Peer":3658,"QW":3659,"QDATE":3660,"QLDATE":3661,"RD":3662,"Run":3663,"RAND":3664,"RenderFrame":3665,"SN":3666,"SU":3667,"SV":3668,"SW":3669,"TK":3670,"TER":3671,"TOK":3672,"Token":3673,"User":3674,"Ver":3675,"Wa":3676,"WAR":3677,"_))":3678,"am":3679,"ain":3680,"ale":3681,"ail":3682,"bp":3683,"border":3684,"coff":3685,"cing":3686,"clip":3687,"dis":3688,"dph":3689,"dgram":3690,"dware":3691,"each":3692,"flo":3693,"fig":3694,"fill":3695,"flu":3696,"first":3697,"function":3698,"func":3699,"gu":3700,"hing":3701,"high":3702,"huge":3703,"iver":3704,"ique":3705,"jo":3706,"js":3707,"ker":3708,"kill":3709,"kDefault":3710,"mb":3711,"mid":3712,"malloc":3713,"mcopy":3714,"mcnt":3715,"mily":3716,"nce":3717,"nla":3718,"null":3719,"oc":3720,"och":3721,"ood":3722,"own":3723,"owe":3724,"omagic":3725,"opaque":3726,"overlays":3727,"pb":3728,"pose":3729,"pgoff":3730,"rded":3731,"sb":3732,"scan":3733,"scale":3734,"tk":3735,"txt":3736,"tstate":3737,"tpc":3738,"ume":3739,"uble":3740,"ving":3741,"vsc":3742,"word":3743,"wise":3744,"width":3745,"winsta":3746,"zalloc":3747,"ĊĊĠĠĠĠĠĠĠĠĠĠĠĠĠĠĠ":3748,"Ġla":3749,"Ġhar":3750,"Ġ32":3751,"Ġurl":3752,"Ġrouting":3753,"Ġlarge":3754,"rection":3755,"remaining":3756,"inc":3757,"ination":3758,"information":3759,"ĊĉĉĠĠĠĠĠĠ":3760,"seed":3761,"sequence":3762,"self":3763,"select":3764,"ĠĠĠĠĠĠĠĠĠĠĠĠĠĠĠĠ":3765,"erha":3766,"station":3767,"stall":3768,"stination":3769,"ongs":3770,"Ġtile":3771,"Ġtsk":3772,"Ġtree":3773,"Ġtag":3774,"Ġtmpl":3775,"Ġtake":3776,"lection":3777,"atched":3778,"Ġctxt":3779,"oft":3780,"orary":3781,"sis":3782,"hent":3783,"hemat":3784,"height":3785,"Ġass":3786,"Ġamo":3787,"inting":3788,"interrup":3789,"generate":3790,"den":3791,"des":3792,"Ġpc":3793,"Ġpart":3794,"Ġpmatch":3795,"Ġpgoff":3796,"Ġpolicy":3797,"Ġpredicate":3798,"Ġppapi":3799,"Ġ\")":3800,"Ġ\"+":3801,"Ġ\"-":3802,"Ġ\"\";":3803,"alk":3804,"alpha":3805,"uri":3806,"urface":3807,"ene":3808,"enable":3809,"ensity":3810,"Ġthey":3811,"Ġfit":3812,"Ġfew":3813,"Ġfind":3814,"ĊĉĉĉĉĠ":3815,"unched":3816,"retry":3817,"Ġsp":3818,"Ġswitch":3819,"Ġslow":3820,"Ġscale":3821,"Ġsharpen":3822,"ingle":3823,"reams":3824,"Ġ&(":3825,"idr":3826,"LED":3827,"LEID":3828,"roid":3829,"rove":3830,"ĊĊĊ":3831,"but":3832,"peeked":3833,"Ġwon":3834,"Ġwinsta":3835,"Ġnoff":3836,"coding":3837,"strncmp":3838,"stripped":3839,"ism":3840,"ĠFST":3841,"ĠFAIL":3842,"errno":3843,"lass":3844,"laneous":3845,"oper":3846,"ntp":3847,"connect":3848,"convert":3849,"ĠSo":3850,"Ġblob":3851,"Ġblack":3852,"adapti":3853,"ates":3854,"Ġinet":3855,"Ġrect":3856,"Ġreset":3857,"Ġreuse":3858,"Ġrequi":3859,"Ġdid":3860,"Ġdue":3861,"ERP":3862,"serve":3863,"Ġml":3864,"Ġmm":3865,"Ġmode":3866,"Ġmight":3867,"ĠIs":3868,"ĠIND":3869,"ĠIgnore":3870,"ĠIBus":3871,"ĠNo":3872,"ĠNote":3873,"ĠNumber":3874,"ans":3875,"Ġvalid":3876,"Ġ10000":3877,"tric":3878,"tribute":3879,"Ġ!(":3880,"amental":3881,"upport":3882,"ication":3883,"Ġconta":3884,"Ġconnect":3885,"ious":3886,"Ġgfn":3887,"Ġgtk":3888,"Ġeither":3889,"Ġdefault":3890,"Ġdestination":3891,"filename":3892,"ATTR":3893,"MEDI":3894,"newp":3895,"newContextSize":3896,"script":3897,"skip":3898,"verifier":3899,"Ġcore":3900,"ĠOper":3901,"ĠOther":3902,"Received":3903,"ĠDisp":3904,"Ġuspace":3905,"Ġudph":3906,"ĠPP":3907,"ĠPa":3908,"ĠPlugin":3909,"ĠPVSCSI":3910,"ĠPerha":3911,"Invalid":3912,"Ġelmcnt":3913,"Ġweb":3914,"SEND":3915,"SEGV":3916,"OPER":3917,"OPEN":3918,"msglen":3919,"ĠTry":3920,"ĠTXT":3921,"Ġopaque":3922,"forward":3923,"aged":3924,"sglist":3925,"ĠAs":3926,"ĠAll":3927,"ĠAny":3928,"Ġmain":3929,"Ġmaster":3930,"Ġstat":3931,"Ġstand":3932,"Ġstream":3933,"domid":3934,"ENER":3935,"dataAd":3936,"shinfo":3937,"shutdown":3938,"ĠCA":3939,"ĠCan":3940,"ĠCPU":3941,"IDATE":3942,"ĊĉĉĉĉĉĠĠĠĠĠ":3943,"assign":3944,"REP":3945,"RECT":3946,"READ":3947,"ches":3948,"Ġforce":3949,"Ġkmem":3950,"Ġ%.":3951,"ĠMessage":3952,"Ġcollection":3953,"locked":3954,"ĠError":3955,"Ġprinter":3956,"Ġprinting":3957,"ĠOnSet":3958,"ĠOnJavaScriptExecuteRequest":3959,"HANDSH":3960,"Ġops":3961,"Ġgenerate":3962,"alias":3963,"Ġwithout":3964,"Ġcolorspace":3965,"Ġ'!':":3966,"Ġ'<':":3967,"Ġ'=':":3968,"Ġ'>':":3969,"ALLED":3970,"Ġalready":3971,"LOC":3972,"FrameOnUI":3973,"CTED":3974,"Printer":3975,"ADR":3976,"Ġpass":3977,"Ġfiles":3978,"SetString":3979,"termin":3980,"Ġmedi":3981,"Ġmechan":3982,"Ġmeans":3983,"()));":3984,"Stop":3985,"Ġhello":3986,"Ġoutput":3987,"UNT":3988,"UNEX":3989,"UNINST":3990,"Ġdown":3991,"Ġdocument":3992,"board":3993,"bookmark":3994,"Ġhold":3995,"Ġhost":3996,"GetBoolean":3997,"GetApp":3998,"trap":3999,"ustom":4000,"Ġrot":4001,"Ġaddip":4002,"Ġexit":4003,"Ġexpect":4004,"ĠexprRes":4005,"fdmax":4006,"Ġassert":4007,"istics":4008,"tial":4009,"tible":4010,"ĠVLOG":4011,"defaultStyle":4012,"BEID":4013,"DEPRE":4014,"DECL":4015,"expected":4016,"exprRes":4017,"ferent":4018,"Ġunion":4019,"Ġunits":4020,"Ġunless":4021,"Ġuninstalled":4022,"content":4023,"prOp":4024,"profile":4025,"private":4026,"ERRORS":4027,"Ġwhite":4028,"yscale":4029,"Ġerrors":4030,"ators":4031,"Ġnow":4032,"Ġmatrix":4033,"Ġmathemat":4034,"Ġmatches":4035,"InputMethod":4036,"ĠGFP":4037,"ĠGURL":4038,"ĠGDataDirectory":4039,"netdev":4040,"Ġfails":4041,"tedPrint":4042,"EXEC":4043,"Ġproper":4044,"ĠcontextSize":4045,"....":4046,"dpi":4047,"observer":4048,"INTERP":4049,"cmlen":4050,"ffine":4051,"Ġcookielen":4052,"DIRT":4053,"DIRECT":4054,"Parent":4055,"PECTED":4056,"csum":4057,"progress":4058,"srpid":4059,"ĠUpdate":4060,"ĠELFCORE":4061,"Ġtransparent":4062,"badcap":4063,"Ġarbit":4064,"api":4065,"riptedPrint":4066,"ĠReset":4067,"ĠRead":4068,"ĠRestore":4069,"MIME":4070,"OnMessage":4071,"ToCurrent":4072,"ĠInit":4073,"ĠInstead":4074,"IndexedDBDispatcher":4075,"Ġanything":4076,"WebNode":4077,"WebUI":4078,"AILS":4079,"TRUNC":4080,"Ġadded":4081,"Ġpages":4082,"Ġuses":4083,"Ġfdnum":4084,"Ġfdmax":4085,"Ġrequested":4086,"signal":4087,"APPLE":4088,"Scaling":4089,"ScriptedPrint":4090,"Ġless":4091,"Ġleft":4092,"lobal":4093,"extensions":4094,"CONNECT":4095,"OpEval":4096,"ĠXML":4097,"Ġsafe":4098,"Ġsample":4099,"Ġsays":4100,"Ġinterp":4101,"Ġcompression":4102,"ĠThere":4103,"transaction":4104,"--;":4105,"FromWebUI":4106,"Server":4107,"blocking":4108,"emporary":4109,"fixed":4110,"prefixed":4111,"ĠHttp":4112,"steps":4113,"Ġprocessing":4114,"ĠSTX":4115,"colors":4116,"(!(":4117,"BANN":4118,"Database":4119,"PreviewDocument":4120,"system":4121,"Ġsupported":4122,"ĠSEQ":4123,"ĠAddDirectory":4124,"CreateBoolean":4125,"lines":4126,"xmlXPathNodeSetClear":4127,"Ġclearpkt":4128,"ssoc":4129,"Ġlinked":4130,"ĠxmlXPathReleaseObject":4131,"PRINTER":4132,"BooleanType":4133,"HTML":4134,"kErrorService":4135,"pointer":4136,"commands":4137,"ĠSIGBUS":4138,"Ġlinecnt":4139,"Ġmessages":4140,"UNIXCB":4141,"primary":4142,"Compositor":4143,"CompOpEval":4144,"ĠviewportStyleResolver":4145,"Ġspecific":4146,"CMSG":4147,"Javascript":4148,"find":4149,"Ġvirt":4150,"Ġabove":4151,"ĠFLDX":4152,"children":4153,"Ġbytecnt":4154,"Ġreferences":4155,"marked":4156,"synchronize":4157,"Delegate":4158,"MagickFalse":4159,"QUAD":4160,"ROUTE":4161,"ROUTER":4162,"ialized":4163,"rdms":4164,"Ġtmpclient":4165,"Ġcmfptr":4166,"handler":4167,"Ġwarning":4168,"licit":4169,"SIGN":4170,"physmem":4171,"Ġhighlight":4172,"Ġsockets":4173,"Ġargu":4174,"CallbacksSuccessIDB":4175,"PATH":4176,"modutil":4177,"Ġenhance":4178,"Ġsignal":4179,"opened":4180,"ĠStyle":4181,"Ġregion":4182,"Ġregister":4183,"InitPrintSettings":4184,"ENABLED":4185,"ĠMagickBooleanType":4186,"collectFeatures":4187,"IBusCon":4188,"Modifiable":4189,"erations":4190,"ification":4191,"Ġautomagic":4192,"Ġiov":4193,"Ġscreen":4194,"Ġincrease":4195,"Ġdirty":4196,"librar":4197,"Ġcontained":4198,"ĠAVERROR":4199,"notecount":4200,"ĠRenderFrameImpl":4201,"ĠRenderFrameObserver":4202,"Ġvertical":4203,"Ġvertically":4204,"Ġhorizontal":4205,"Ġhorizontally":4206,"NAMESPACE":4207,"UpdatePrintSettings":4208,"active":4209,"lseek":4210,"syslog":4211,"Ġapparent":4212,"cellaneous":4213,"loadedExtension":4214,"Ġbitmap":4215,"Ġrecursion":4216,"Ġdifferent":4217,"Ġlikely":4218,"Ġgoing":4219,"ĠTLVs":4220,"Ġhandl":4221,"LOADED":4222,"Controller":4223,"bounds":4224,"Launcher":4225,"ĠInputMethodLibraryImpl":4226,"AKE":4227,"Session":4228,"noring":4229,"ough":4230,"runner":4231,"rightness":4232,"Ġqueues":4233,"Ġ...]":4234,"Ġ\\\"%":4235,"Ġreason":4236,"alculate":4237,"ensation":4238,"Ġimprove":4239,"Ġidentify":4240,"ĠminPos":4241,"Ġoccur":4242,"Ġwhole":4243,"Ġproblems":4244,"Ġadaptively":4245,"AndViewForPrint":4246,"Ġdiscarded":4247,"Belongs":4248,"CANDIDATE":4249,"CallJavascript":4250,"CLIENT":4251,"DYN":4252,"DETAILS":4253,"Fixing":4254,"Fundamental":4255,"Ignoring":4256,"ISSUE":4257,"MALLOC":4258,"Platform":4259,"QWDATE":4260,"RANDOM":4261,"TOKEN":4262,"Version":4263,"Wait":4264,"WARNING":4265,"flush":4266,"owever":4267,"vscsi":4268,"Ġhardware":4269,"Ġassume":4270,"Ġamount":4271,"ĠFSTX":4272,"adaptive":4273,"ĠINDIR":4274,"Ġcontains":4275,"MEDIA":4276,"ĠOperators":4277,"Ġudphdr":4278,"ĠPerhaps":4279,"dataAddr":4280,"HANDSHAKE":4281,"terminated":4282,"Ġmechanism":4283,"UNEXPECTED":4284,"DEPRECATED":4285,"DIRTY":4286,"OnMessageReceived":4287,"ToCurrentThread":4288,"BANNER":4289,"CreateBooleanValue":4290,"Ġautomagically":4291,"libraries":4292,"loadedExtensionInfo":4293,"BelongsToCurrentThread":4294,"CallJavascriptFunction":4295,"FundamentalValue":4296,"'ve":4297,"(%":4298,")\",":4299,",\"":4300,".\\":4301,".__":4302,"//":4303,"12":4304,"30":4305,"31":4306,"34":4307,"400":4308,"60":4309,"634":4310,"70":4311,"://":4312,"==":4313,"AC":4314,"AS":4315,"AV":4316,"Ab":4317,"Ar":4318,"Age":4319,"ASE":4320,"Action":4321,"ASL":4322,"All":4323,"Aler":4324,"BI":4325,"BN":4326,"BACK":4327,"Blocked":4328,"CY":4329,"Cor":4330,"Cut":4331,"Css":4332,"CERR":4333,"Client":4334,"Core":4335,"Cap":4336,"CCE":4337,"COL":4338,"Charact":4339,"CODE":4340,"CACHE":4341,"CALL":4342,"CPU":4343,"CINFO":4344,"Custom":4345,"DF":4346,"DU":4347,"DIN":4348,"DIO":4349,"Daemon":4350,"EQ":4351,"ES":4352,"EV":4353,"ELE":4354,"End":4355,"EAG":4356,"EIO":4357,"EIP":4358,"EFAULT":4359,"EINTR":4360,"EOF":4361,"FC":4362,"FN":4363,"Fid":4364,"Fly":4365,"Flags":4366,"Fill":4367,"FALL":4368,"Find":4369,"GTK":4370,"GFN":4371,"Ht":4372,"Hw":4373,"Http":4374,"Id":4375,"IME":4376,"KM":4377,"KPRO":4378,"Lo":4379,"Len":4380,"MP":4381,"Mode":4382,"MSI":4383,"MIP":4384,"Mob":4385,"Match":4386,"Miss":4387,"Marg":4388,"Maybe":4389,"Mipmaps":4390,"Nr":4391,"NSI":4392,"Nhdr":4393,"Null":4394,"Number":4395,"Of":4396,"OWN":4397,"OCOL":4398,"PP":4399,"PILE":4400,"PRP":4401,"Point":4402,"PAR":4403,"POL":4404,"Prefs":4405,"Pref":4406,"Program":4407,"Predicate":4408,"Pboard":4409,"PDU":4410,"RG":4411,"RK":4412,"Rat":4413,"Red":4414,"RAG":4415,"Rout":4416,"Render":4417,"RUNT":4418,"SF":4419,"Sn":4420,"Ste":4421,"Send":4422,"SST":4423,"Shdr":4424,"Swap":4425,"SInfo":4426,"Sand":4427,"SOL":4428,"Surround":4429,"SINFO":4430,"TP":4431,"Tr":4432,"TSC":4433,"TEXT":4434,"UW":4435,"Us":4436,"Une":4437,"Und":4438,"Vis":4439,"WL":4440,"Wor":4441,"WINST":4442,"Worker":4443,"XY":4444,"XML":4445,"XPTR":4446,"XATTR":4447,"YBE":4448,"[%":4449,"[-":4450,"]),":4451,"_;":4452,"_[":4453,"_));":4454,"aic":4455,"ault":4456,"ample":4457,"amma":4458,"assoc":4459,"bs":4460,"bor":4461,"bel":4462,"bers":4463,"black":4464,"bian":4465,"cc":4466,"cg":4467,"cl":4468,"cat":4469,"cret":4470,"clen":4471,"clean":4472,"channel":4473,"change":4474,"dq":4475,"dy":4476,"der":4477,"dle":4478,"dro":4479,"dither":4480,"done":4481,"eo":4482,"efficient":4483,"fu":4484,"fw":4485,"fData":4486,"finish":4487,"filter":4488,"fstat":4489,"flatten":4490,"gle":4491,"gra":4492,"gref":4493,"hood":4494,"ier":4495,"ice":4496,"ibuf":4497,"imp":4498,"iet":4499,"ias":4500,"iable":4501,"ialias":4502,"kregs":4503,"kPreview":4504,"kref":4505,"kuid":4506,"kgid":4507,"lp":4508,"lgN":4509,"mon":4510,"mis":4511,"mul":4512,"mget":4513,"mdu":4514,"mize":4515,"mfn":4516,"mmedi":4517,"mdebug":4518,"mipmapcount":4519,"morphology":4520,"mfw":4521,"nam":4522,"nbadcap":4523,"ola":4524,"ores":4525,"oFill":4526,"pt":4527,"pst":4528,"pop":4529,"press":4530,"pwrite":4531,"pOp":4532,"pia":4533,"pts":4534,"pvscsi":4535,"rk":4536,"rp":4537,"ru":4538,"ring":4539,"rate":4540,"rcu":4541,"rib":4542,"river":4543,"sw":4544,"spa":4545,"scoped":4546,"spar":4547,"sharpen":4548,"successful":4549,"surface":4550,"tun":4551,"tte":4552,"tps":4553,"txp":4554,"tImage":4555,"tlse":4556,"title":4557,"token":4558,"tDialog":4559,"ute":4560,"ubuf":4561,"uch":4562,"uSE":4563,"uff":4564,"ular":4565,"udes":4566,"vq":4567,"vw":4568,"vol":4569,"vas":4570,"with":4571,"worker":4572,"watched":4573,"walk":4574,"xc":4575,"xd":4576,"xf":4577,"xx":4578,"xen":4579,"xim":4580,"xpected":4581,"xFlags":4582,"yze":4583,"yet":4584,"ystem":4585,"zu":4586,"zcopy":4587,"Ġ6":4588,"ĠJ":4589,"Ġ->":4590,"ĠĊĊ":4591,"ĠUN":4592,"ĠĊĉĉĉĉĠĠĠ":4593,"Ġgetu":4594,"Ġjob":4595,"Ġserial":4596,"ĠBUS":4597,"ĠLIB":4598,"Ġlayers":4599,"ĠUNIXCB":4600,"ĠKM":4601,"rege":4602,"resize":4603,"reed":4604,"recur":4605,"restore":4606,"release":4607,"reclen":4608,"inet":4609,"inum":4610,"indexed":4611,"inary":4612,"ses":4613,"sequ":4614,"seek":4615,"ĠĠĠĠĠĠĠĠĠĠĠĠĠĠĠĠĠĠ":4616,"ĊĉĊ":4617,"ĊĉĠĠ":4618,"Ġ());":4619,"ert":4620,"erOffset":4621,"ernal":4622,"stack":4623,"stream":4624,"straints":4625,"onent":4626,"onAt":4627,"onFly":4628,"Ġtex":4629,"Ġtitle":4630,"Ġtls":4631,"Ġtemporary":4632,"let":4633,"lements":4634,"ifo":4635,"ĊĠĠĠĠĠĠ":4636,"atal":4637,"Ġcp":4638,"Ġcre":4639,"Ġcent":4640,"Ġcall":4641,"Ġchan":4642,"Ġcdp":4643,"Ġclose":4644,"Ġcub":4645,"Ġcrx":4646,"Ġcursor":4647,"Ġchange":4648,"Ġcsum":4649,"Ġclass":4650,"orient":4651,"sive":4652,"sibl":4653,"message":4654,"metic":4655,"mething":4656,"hed":4657,"hether":4658,"help":4659,"Ġarea":4660,"Ġavi":4661,"Ġable":4662,"Ġaround":4663,"Ġassoci":4664,"Ġassociation":4665,"Ġaffine":4666,"ged":4667,"gen":4668,"del":4669,"decipher":4670,"delete":4671,"depth":4672,"Ġpe":4673,"Ġpot":4674,"Ġpid":4675,"Ġpop":4676,"Ġpar":4677,"Ġpci":4678,"Ġpas":4679,"Ġ\"\\":4680,"Ġ\"((":4681,"ctor":4682,"ald":4683,"alt":4684,"allow":4685,"alAler":4686,"alyze":4687,"rap":4688,"raph":4689,"raster":4690,"offs":4691,"ended":4692,"encipher":4693,"setval":4694,"setgroup":4695,"setuid":4696,"setgid":4697,"itor":4698,"ited":4699,"itNavigation":4700,"Ġtheir":4701,"man":4702,"mach":4703,"make":4704,"master":4705,"ĊĉĉĉĊĉĉ":4706,"ĊĉĉĉĠĠĠĠĠĠ":4707,"ĊĠĠĠĠĠĠĠĠĠĠ":4708,"necess":4709,"Ġfol":4710,"Ġfunction":4711,"Ġfeatures":4712,"Ġflatten":4713,"Ġfreed":4714,"Ġfifo":4715,"Ġfatal":4716,"uname":4717,"uncomm":4718,"uninstalled":4719,"unused":4720,"unmarshal":4721,"unication":4722,"Ġiss":4723,"Ġimpl":4724,"Ġimmedi":4725,"mslot":4726,"Ġspa":4727,"Ġsoffset":4728,"Ġsche":4729,"Ġslots":4730,"Ġsub":4731,"Ġsrc":4732,"Ġsnmp":4733,"Ġsurround":4734,"Ġsuccessful":4735,"Ġsoft":4736,"Ġsingle":4737,"oth":4738,"otion":4739,"otect":4740,"ingID":4741,"ingSelection":4742,"ingRules":4743,"candidate":4744,"card":4745,"reached":4746,"idt":4747,"idden":4748,"iddle":4749,"LEDATE":4750,"LESTRING":4751,"LELDATE":4752,"LEDOUBLE":4753,"LEFLOAT":4754,"roke":4755,"roll":4756,"roken":4757,"roker":4758,"pax":4759,"paper":4760,"painting":4761,"/**":4762,"ĊĊĠĠ":4763,"hasis":4764,"pear":4765,"pell":4766,"Ġwor":4767,"Ġwbio":4768,"Ġwould":4769,"Ġway":4770,"Ġwell":4771,"Ġwave":4772,"Ġwhether":4773,"offsetreg":4774,"Ġnb":4775,"Ġnh":4776,"Ġns":4777,"Ġnan":4778,"lode":4779,"loop":4780,"ckle":4781,"com":4782,"coal":4783,"cover":4784,"tect":4785,"isprint":4786,"ĠFor":4787,"ĠFrom":4788,"ĠFree":4789,"ĠFIX":4790,"ĠFour":4791,"ĠFault":4792,"errp":4793,"utable":4794,"nttab":4795,"ntOr":4796,"construct":4797,"console":4798,"concat":4799,"ĠSF":4800,"ĠSpe":4801,"ĠSigh":4802,"ĠString":4803,"ĠSupport":4804,"ĠSystem":4805,"Ġbund":4806,"Ġbrightness":4807,"Ġbinary":4808,"Ġboth":4809,"Ġinsert":4810,"Ġinotify":4811,"Ġinstead":4812,"Ġred":4813,"Ġresi":4814,"Ġrece":4815,"Ġresize":4816,"Ġresource":4817,"Ġresp":4818,"Ġrepre":4819,"Ġrelease":4820,"Ġreplace":4821,"Ġremain":4822,"Ġreject":4823,"Ġreceive":4824,"Ġremaining":4825,"Ġrecover":4826,"mpty":4827,"mprot":4828,"Ġdig":4829,"Ġdist":4830,"Ġdriver":4831,"ERM":4832,"ols":4833,"oly":4834,"olation":4835,"olated":4836,"Ġlpages":4837,"ĠlgN":4838,"Ġlight":4839,"Ġlimit":4840,"served":4841,"serving":4842,"edst":4843,"Ġmy":4844,"Ġmine":4845,"Ġmost":4846,"Ġmalloc":4847,"Ġmipmaps":4848,"Ġmorphology":4849,"Ġmiddle":4850,"visible":4851,"virt":4852,"violation":4853,"ĠNM":4854,"ĠNUL":4855,"ĠNMI":4856,"ĠNow":4857,"ĠNUM":4858,"arting":4859,"lice":4860,"annot":4861,"Ġtoken":4862,"Ġva":4863,"Ġvb":4864,"Ġvif":4865,"Ġvhost":4866,"Ġvzalloc":4867,"INET":4868,"INFORMAT":4869,"INIT":4870,"INERRORS":4871,"INDIRECT":4872,"ORD":4873,"ORBE":4874,"Ġinterrup":4875,"Ġintensity":4876,"Ġthru":4877,"endpoint":4878,"endSelection":4879,"icated":4880,"gnette":4881,"ONLY":4882,"iommu":4883,"Ġsecond":4884,"ential":4885,"Ġgid":4886,"Ġgiv":4887,"Ġgive":4888,"Ġglobal":4889,"Ġgamma":4890,"Ġgnttab":4891,"Ġeb":4892,"Ġeasi":4893,"Ġdec":4894,"Ġdef":4895,"Ġdebug":4896,"Ġdetail":4897,"Ġdeact":4898,"Ġdepth":4899,"Ġdecision":4900,"Ġdetect":4901,"that":4902,"thread":4903,"METR":4904,"MEDATE":4905,"MELDATE":4906,"screen":4907,"Ġisn":4908,"Ġisqu":4909,"Ġcomple":4910,"Ġcomm":4911,"veRange":4912,"ĠOLF":4913,"Reset":4914,"Reload":4915,"Reply":4916,"RefData":4917,"ĠDIE":4918,"ĠDump":4919,"Ġuid":4920,"Ġugfn":4921,"Ġxml":4922,"ĠPC":4923,"ĠPF":4924,"ĠProcess":4925,"ĠProfile":4926,"InIs":4927,"Insert":4928,"InNew":4929,"Install":4930,"Ġelap":4931,"SEC":4932,"SED":4933,"OPENSSL":4934,"something":4935,"msgtype":4936,"msgseq":4937,"ĠTSTATE":4938,"fortun":4939,"getapp":4940,"fast":4941,"family":4942,"names":4943,"namesize":4944,"namespace":4945,"ĠAF":4946,"ĠAvoid":4947,"ĠASN":4948,"ĠANSI":4949,"Ġmask":4950,"Ġmaps":4951,"Ġmajor":4952,"Ġmany":4953,"Ġmark":4954,"tryelf":4955,"tryanother":4956,"Ġstack":4957,"Ġstill":4958,"Ġstale":4959,"Ġstores":4960,"Ġstuff":4961,"Ġstroke":4962,"Ġstarting":4963,"Ġangle":4964,"Ġanalyze":4965,"task":4966,"dout":4967,"ENOTS":4968,"shot":4969,"short":4970,"umbn":4971,"SLStyleSheet":4972,"ĠCreate":4973,"ĠCOM":4974,"ĠCCM":4975,"ĠCMSG":4976,"Ġlonger":4977,"https":4978,"Ġ((*":4979,"ithmetic":4980,"ĊĉĉĉĉĉĠĠĠĠ":4981,"Ġbeing":4982,"Ġbegin":4983,"asml":4984,"assert":4985,"RECOR":4986,"Ġfork":4987,"Ġform":4988,"Ġke":4989,"Ġkns":4990,"Ġkno":4991,"ĠkPipe":4992,"Ġkiocb":4993,"Ġkmalloc":4994,"wave":4995,"ites":4996,"Ġitself":4997,"Ġiterations":4998,"odfill":4999,"ĠMIN":5000,"ĠMSI":5001,"ĠMipmapcount":5002,"locks":5003,"ĠESP":5004,"ĠEINTR":5005,"Ġprintable":5006,"ĠOnCo":5007,"ĠOnText":5008,"ĠOnCopy":5009,"ĠOnReplace":5010,"ĠOnPaste":5011,"Ġopti":5012,"Ġoperation":5013,"ĠnotImplemented":5014,"oldContext":5015,"Ġgete":5016,"Ġ'^":5017,"ALIG":5018,"Ġ25":5019,"Ġorient":5020,"Ġorder":5021,"Ġbufs":5022,"Ġalter":5023,"Ġallocate":5024,"fsState":5025,"fsFid":5026,"fsPDU":5027,"mlDialog":5028,"Printf":5029,"PrintScaling":5030,"noise":5031,"noblock":5032,"Ġonto":5033,"SCAR":5034,"irl":5035,"OTOCOL":5036,"key":5037,"Ġmetric":5038,"Ġmemslot":5039,"()))":5040,"())))":5041,"matte":5042,"ĠvaluePop":5043,"using":5044,"Ġheight":5045,"Ġheld":5046,"Ġhence":5047,"Ġnest":5048,"Ġnear":5049,"Ġnever":5050,"Ġneigh":5051,"MAR":5052,"MAYBE":5053,"UNLOADED":5054,"Ġdoing":5055,"Ġdouble":5056,"Connect":5057,"Console":5058,"Constraints":5059,"boss":5060,"boxFlags":5061,"Ġhstate":5062,"Ġhuge":5063,"ĊĉĉĉĉĉĉĠĠĠĠĠĠĠĠ":5064,"ĊĉĉĉĉĉĉĠĠĠĠĠĠ":5065,"GetString":5066,"GetDocument":5067,"GetInteger":5068,"GetSession":5069,"ICS":5070,"ICY":5071,"ports":5072,"portStyleResolver":5073,"ableSelection":5074,"listen":5075,"Ġrbio":5076,"rectype":5077,"Ġexist":5078,"Ġexec":5079,"ĠexprOp":5080,"Ġexchange":5081,"fds":5082,"fdnum":5083,"osaic":5084,"Ġcached":5085,"Ġcause":5086,"sigbus":5087,"sigsegv":5088,"Ġassign":5089,"Ġdescrib":5090,"(\"%":5091,"NodeOr":5092,"istic":5093,"timer":5094,"ĠView":5095,"Ġstrlen":5096,"Ġstrtab":5097,"Ġstrdup":5098,"BEDATE":5099,"BEMAP":5100,"BELDATE":5101,"BEDOUBLE":5102,"BEFLOAT":5103,"BEGIN":5104,"DEV":5105,"DELE":5106,"DEFAULT":5107,"exped":5108,"exec":5109,"Ġunmap":5110,"Ġends":5111,"Ġendpoint":5112,"append":5113,"curbuf":5114,"Ġmemchr":5115,"regerror":5116,"register":5117,"IPV":5118,"prio":5119,"priv":5120,"prpsoffsets":5121,"Ġcases":5122,"Destroy":5123,"Ġnewbuf":5124,"undary":5125,"Ġwhat":5126,"again":5127,"ferred":5128,"Ġnumbers":5129,"Ġsets":5130,"Ġsetxattr":5131,"Ġtraverse":5132,"ityPosition":5133,"ĊĠĠĠĠĠĠĠĠĠĠĠĠĠĠĠĠĠĠĠĠĠĠĠĠĠĠ":5134,"ĊĠĠĠĠĠĠĠĠĠĠĠĠĠĠĠĠĠĠĠĠĠĠĠĠĠĠĠĠĠĠĠĠĠĠĠĠĠĠĠĠĠĠĠĠ":5135,"directory":5136,"gical":5137,"ĠGui":5138,"ĠGENER":5139,"ĠGraph":5140,"Ġfailure":5141,"basereg":5142,"psalt":5143,"ĠThrow":5144,"EXIST":5145,"styleTree":5146,"lowing":5147,"THROU":5148,"Ġprotect":5149,"INTE":5150,"mmitNavigation":5151,"ĠBIOs":5152,"statically":5153,"Ġcookies":5154,"DIE":5155,"DISCAR":5156,"justSelection":5157,"valuePop":5158,"Ġaren":5159,"ContextPtr":5160,"inking":5161,"inkage":5162,"Ġcanvas":5163,"ĠPrintProp":5164,"socket":5165,"IONW":5166,"ragonFly":5167,"Count":5168,"Cookie":5169,"PRIV":5170,"PROTOCOL":5171,"Ġmsghdr":5172,"Ġcorrel":5173,"Ġcorrection":5174,"serverhello":5175,"Ġoneed":5176,"Existing":5177,"ValueEdit":5178,"proxim":5179,"srpsalt":5180,"ĠUM":5181,"Ġsimp":5182,"Ġrandom":5183,"Ġprece":5184,"Ġprefs":5185,"Ġprevious":5186,"Ġpreserving":5187,"Ġpreferred":5188,"Ġpercpu":5189,"Ġperform":5190,"ildFrame":5191,"Ġsections":5192,"SIZES":5193,"ekBlob":5194,"ĠRender":5195,"ĠRFC":5196,"Ġarray":5197,"Ġarithmetic":5198,"Ġnodes":5199,"ĠDTLSv":5200,"ProcessHandle":5201,"ProcessLauncher":5202,"apshot":5203,"moved":5204,"ĠLinking":5205,"ĠResource":5206,"Ġverify":5207,"LAY":5208,"OnError":5209,"OnPrintPreview":5210,"OnClose":5211,"ToString":5212,"ToUTF":5213,"ToFind":5214,"ToConsole":5215,"cbs":5216,"Ġshinfo":5217,"Ġshnum":5218,"Ġshutdown":5219,"IndexedDBKe":5220,"ĊĠĠĠĠĠĠĠĠĠĠĠĠĠĠĠĠĠĠĠĠĠĠĠĠĠĠĠĠĠ":5221,"Ġkernelspace":5222,"TRAP":5223,"Ġ~(":5224,"Ġlogical":5225,"Ġtextures":5226,"Ġaddr":5227,"CHAN":5228,"MessageEvent":5229,"MessageToConsole":5230,"authent":5231,"Ġ54":5232,"AddInstance":5233,"AddMessageToConsole":5234,"IsE":5235,"IsModifiable":5236,"imum":5237,"Ġlet":5238,"Ġframes":5239,"cancel":5240,"cketStream":5241,"compat":5242,"compression":5243,"component":5244,"layInNew":5245,"00000":5246,"Format":5247,"ForTest":5248,"Opener":5249,"bilites":5250,"clientvers":5251,"nodeNr":5252,"nodesetval":5253,"ĠXPATH":5254,"Ġbug":5255,"Ġbuild":5256,"inished":5257,"Ġinterpol":5258,"Ġinterface":5259,"Ġcomposite":5260,"Ġcompensation":5261,"Ġcompute":5262,"ĊĠĠĠĠĠĠĠĠĠĠĠĠĠĠĠĠĠĠĠĠĠĠĠĠĠĠĠĠĠĠĠĠĠĠĠĠĠ":5263,"PrintingNodeOr":5264,"transform":5265,"transparent":5266,"AMD":5267,"AMS":5268,"AMIC":5269,"FromExisting":5270,"ServiceManagement":5271,"Serialized":5272,"emphasis":5273,"ĠHPAGE":5274,"ĠHowever":5275,"detach":5276,"ĠSTATE":5277,"ĠSTDOU":5278,"ĠSTDIN":5279,"ATIONQUERY":5280,"ĠDebian":5281,"Ġusb":5282,"Ġusage":5283,"ĠmakeRuleSet":5284,"StateRequest":5285,"Devices":5286,"DeviceRefData":5287,"Ġrecords":5288,"0800000":5289,"FileException":5290,"Metr":5291,"Unload":5292,"Unselect":5293,"UnloadedExtensionInfo":5294,"ccept":5295,"ginHt":5296,"mush":5297,"white":5298,"which":5299,"Ġlastbuf":5300,"ĠscopedResolver":5301,"cachep":5302,"Ġmaxopened":5303,"Ġmaximum":5304,"CreateProcess":5305,"CreatePreviewDocument":5306,"DDSInfo":5307,"blue":5308,"display":5309,"linecnt":5310,"osecond":5311,"Ġedge":5312,"Ġclients":5313,"Ġclearly":5314,"Ġchecksum":5315,"Ġphnum":5316,"Ġlinking":5317,"ĠxmlXPathNodeSetClear":5318,"ĠxmlXPathCompOpEval":5319,"ĠTRACE":5320,"Ġobserved":5321,"MAPERR":5322,"ĊĠĠĠĠĠĠĠĠĠĠĠĠĠĠĠĠĠĠĠĠĠĠĠĠĠĠĠĠĠĠĠĠĠĠĠ":5323,"ĊĠĠĠĠĠĠĠĠĠĠĠĠĠĠĠĠĠĠĠĠĠĠĠĠĠĠĠĠĠĠĠĠĠĠĠĠĠĠĠĠĠĠĠĠĠĠĠĠĠĠ":5324,"ExecuteNo":5325,"AndDelete":5326,"AndPrepareFrame":5327,"AndMatch":5328,"CSSInsert":5329,"FailedNavigation":5330,"HTTP":5331,"StringList":5332,"kErrorRequest":5333,"kErrorServiceManagement":5334,"ĠWith":5335,"ĠWell":5336,"ĠWorker":5337,"reloffset":5338,"segment":5339,"ĠSIGIO":5340,"ĠSIGSEGV":5341,"ĠSIGTRAP":5342,"Ġinitialize":5343,"Ġdiscret":5344,"Ġextract":5345,"Ġexternal":5346,"Ġevaluate":5347,"ĠOSes":5348,"waiting":5349,"waitpid":5350,"Ġoriginal":5351,"Composition":5352,"Selectors":5353,"SelectPopupMenuIte":5354,"SelectionExt":5355,"fixups":5356,"Ġspecify":5357,"CMD":5358,"ably":5359,"gamma":5360,"rxInstall":5361,"totalframes":5362,"ĠBRK":5363,"Ġvia":5364,"Ġvisible":5365,"icsContext":5366,"Ġcontents":5367,"Ġgrayscale":5368,"Ġdevices":5369,"DisplayInNew":5370,"Launched":5371,"MagickOffsetType":5372,"MagickTr":5373,"NotFo":5374,"NotImplemented":5375,"Notification":5376,"UPDATE":5377,"epsilon":5378,"ruptImage":5379,"tsvw":5380,"writers":5381,"licate":5382,"Ġepsilon":5383,"Ġepoch":5384,"foreUnload":5385,"SIGBUS":5386,"SIGPIPE":5387,"ĠMAC":5388,"ĠOnSuccessCursor":5389,"ĠOnSuccessIDB":5390,"Ġexplicit":5391,"Ġcapabilites":5392,"inspectorView":5393,"installer":5394,"ObjectPtr":5395,"ScriptValue":5396,"CallbacksSuccessCursor":5397,"Ġlocations":5398,"segvgu":5399,"ĠChunks":5400,"Offsets":5401,"Ġalignment":5402,"TabPage":5403,"poll":5404,"Ġterms":5405,"Ġfilling":5406,"Ġnonprintable":5407,"commit":5408,"ĠStack":5409,"Ġevents":5410,"versmajor":5411,"ĠMagickFalse":5412,"ĠMagickOffsetType":5413,"ĠExtensionPrefs":5414,"Ġsockaddr":5415,"PROCINFO":5416,"PROXY":5417,"IBusInputContext":5418,"PagesForPrint":5419,"AdjustSelection":5420,"CLOCK":5421,"CLOEXEC":5422,"CLOSED":5423,"Disown":5424,"EPIPE":5425,"EPBP":5426,"EPERM":5427,"ModalAler":5428,"Shutdown":5429,"cdl":5430,"fragoff":5431,"ualStateRequest":5432,"recvmsg":5433,"Ġauth":5434,"Ġagain":5435,"Ġflop":5436,"Ġfloating":5437,"Ġscene":5438,"Ġsuch":5439,"Ġsucce":5440,"Ġsystem":5441,"Ġsymb":5442,"Ġincludes":5443,"Ġdisplay":5444,"Ġdisplacement":5445,"Ġdcbnl":5446,"etcher":5447,"library":5448,"Ġvmx":5449,"Ġselectors":5450,"ĠPOLLIN":5451,"ĠAlways":5452,"ĠAllocate":5453,"Ġchildren":5454,"INTRS":5455,"Ġcorrectly":5456,"srptype":5457,"srpverifier":5458,"Transform":5459,"Ġcharacteristics":5460,"Navigate":5461,"ANY":5462,"DidUpdate":5463,"DidGetDocument":5464,"NoContent":5465,"NORM":5466,"NORET":5467,"PLETE":5468,"PipeName":5469,"PluginInstance":5470,"Ġloads":5471,"sentation":5472,"stretching":5473,"Ġcycles":5474,"Ġactivate":5475,"Ġactually":5476,"delegated":5477,"Ġlike":5478,"Ġmojo":5479,"Ġdetached":5480,"Ġdetails":5481,"Ġcompare":5482,"ĠTools":5483,"Ġhandshake":5484,"Continue":5485,"Ġexceptions":5486,"ĠUnfortun":5487,"SPARCV":5488,"Ġrelational":5489,"LaunchInputMethod":5490,"ĠMAXSLOTS":5491,"ĠMAXINTRS":5492,"AUTH":5493,"AUDIO":5494,"ByCharact":5495,"CUR":5496,"CUBEMAP":5497,"CLEAR":5498,"Closed":5499,"DATA":5500,"ExtendSelection":5501,"PrepareFrameAndViewForPrint":5502,"ScopedHandle":5503,"evaluate":5504,"evaluation":5505,"mitted":5506,"rotate":5507,"ĊĠĠĉ":5508,"Ġaccessible":5509,"Ġaccessed":5510,"nested":5511,"Ġfixup":5512,"Ġimplement":5513,"Ġimplements":5514,"Ġsaturation":5515,"Ġworked":5516,"Ġntohs":5517,"Ġntohl":5518,"Ġindexes":5519,"Ġdumps":5520,"Ġvarious":5521,"Ġvariable":5522,"Ġcontinue":5523,"Ġevery":5524,"ĠPepperMediaDeviceManager":5525,"ĠProgrammer":5526,"ĠProgramming":5527,"Ġmachine":5528,"ĠContent":5529,"ĠOnSelectPopupMenuIte":5530,"Ġ'%.*":5531,"Ġallowed":5532,"Ġmeasure":5533,"Ġhitlist":5534,"ĠVMAs":5535,"Ġappends":5536,"ContextMenuAction":5537,"ContextMenuClosed":5538,"ĠoldContextNode":5539,"ĠoldContextDoc":5540,"ExceptionInfo":5541,"Ġleast":5542,"DeviceInfoPtr":5543,"Tracker":5544,"TrackSettings":5545,"ShouldDisplayInNew":5546,"ĠPOLLRD":5547,"TransactionCallbacks":5548,"AuthToken":5549,"AccessibilityMode":5550,"EditableSelection":5551,"Ġcorrespond":5552,"Ġcorresponding":5553,"Activ":5554,"BeforeUnload":5555,"BLOCK":5556,"DOORBE":5557,"DrawConstraints":5558,"MoveRange":5559,"NONBLOCK":5560,"NativeLibrary":5561,"Proxy":5562,"PostMessageEvent":5563,"PepperMediaDeviceManager":5564,"PdfFrame":5565,"RunModalAler":5566,"SUCCE":5567,"SVR":5568,"UserAge":5569,"bordercolor":5570,"discard":5571,"hugepage":5572,"interruptible":5573,"connected":5574,"ĠSocketStream":5575,"Ġrequire":5576,"ĠOtherwise":5577,"ĠDispatcher":5578,"ĠPluginInstance":5579,"Ġstandard":5580,"REPLY":5581,"Ġkmemdup":5582,"Ġ%.*":5583,"PrinterQuery":5584,"ADRERR":5585,"Ġpassword":5586,"Ġmedia":5587,"UNINSTALLED":5588,"GetAppInfo":5589,"trapnr":5590,"Ġrotate":5591,"Ġproperty":5592,"ĠUpdateFrame":5593,"Ġarbitrary":5594,"ĠInitialize":5595,"CONNECTION":5596,"Ġinterpret":5597,"ServerQuery":5598,"Ġvirtual":5599,"rdmsr":5600,"SIGNED":5601,"Ġarguments":5602,"ĠStyleResolver":5603,"InitPrintSettingsAndPrepareFrame":5604,"collectFeaturesTo":5605,"IBusConfig":5606,"Ġapparently":5607,"Ġhandlers":5608,"Ġoccurred":5609,"DYNAMIC":5610,"PlatformAudioInput":5611,"VersionChange":5612,"6347":5613,"ACCERR":5614,"Abort":5615,"Array":5616,"ASLR":5617,"BIM":5618,"CYCLE":5619,"CorruptImage":5620,"CALLBACK":5621,"CustomContextMenuAction":5622,"DFT":5623,"EVENT":5624,"ELEM":5625,"EndOf":5626,"EAGAIN":5627,"EOFBlob":5628,"FALLTHROU":5629,"KPROBE":5630,"LoginHt":5631,"MSIX":5632,"MIPMAP":5633,"Mobile":5634,"Misspell":5635,"Margins":5636,"PRPSINFO":5637,"Pointer":5638,"PARAM":5639,"POLICY":5640,"Prefetch":5641,"Ratio":5642,"Redo":5643,"RoutingID":5644,"RenderPagesForPrint":5645,"RUNTIME":5646,"Snapshot":5647,"StepOp":5648,"SSTEPBP":5649,"SwapOut":5650,"SandboxFlags":5651,"SurroundingSelection":5652,"TEXTURE":5653,"Usage":5654,"Unexpected":5655,"Undo":5656,"VisualStateRequest":5657,"World":5658,"WINSTATIONQUERY":5659,"bsd":5660,"borhood":5661,"cgrp":5662,"clut":5663,"dqd":5664,"dynam":5665,"drops":5666,"efficients":5667,"ietf":5668,"mdump":5669,"mfwrap":5670,"olaroid":5671,"pstreams":5672,"pwritev":5673,"spacing":5674,"tlsext":5675,"watchedSelectors":5676,"ĠUNSIGNED":5677,"ĠLIBXML":5678,"regex":5679,"recursion":5680,"sequent":5681,"onAttribute":5682,"Ġtexel":5683,"Ġcenter":5684,"Ġcube":5685,"Ġavio":5686,"Ġassociate":5687,"Ġpotential":5688,"Ġpartial":5689,"Ġpassed":5690,"Ġ\"((%\"":5691,"setgroups":5692,"necessary":5693,"Ġfollowing":5694,"uncommonAttribute":5695,"Ġisspace":5696,"Ġimmediately":5697,"Ġspan":5698,"Ġscheme":5699,"Ġsubsequent":5700,"Ġsoftware":5701,"paintingDisabled":5702,"Ġnanosecond":5703,"ĠFIXME":5704,"ĠFourier":5705,"utables":5706,"ntOrigin":5707,"ĠStringPrintf":5708,"Ġbundled":5709,"Ġrespon":5710,"Ġrepresentation":5711,"mprotect":5712,"olatedWorld":5713,"INFORMATIONW":5714,"Ġinterrupt":5715,"Ġgiven":5716,"Ġeasily":5717,"Ġdebugging":5718,"Ġdeactivate":5719,"METRICS":5720,"Ġisquote":5721,"Ġcommunication":5722,"ĠOLFMAG":5723,"InIsolatedWorld":5724,"Ġelapsed":5725,"ENOTSUP":5726,"umbnail":5727,"ĠCOMPILE":5728,"Ġbeginning":5729,"asmlinkage":5730,"RECORD":5731,"Ġknow":5732,"ĠESPIPE":5733,"Ġoptimize":5734,"ALIGN":5735,"fsFidState":5736,"Ġneighborhood":5737,"GetStringUTF":5738,"Ġexecutables":5739,"Ġdescribed":5740,"ĠViewportStyleResolver":5741,"expedited":5742,"DestroyIBusConfig":5743,"ĠGuide":5744,"ĠGENERIC":5745,"ĠGraphicsContext":5746,"ĠThrowFileException":5747,"DISCARD":5748,"Ġcorrelation":5749,"ValueEditCommand":5750,"proximityPosition":5751,"ToFindPboard":5752,"IndexedDBKey":5753,"cancelled":5754,"components":5755,"ForTests":5756,"Ġinterpolation":5757,"PrintingNodeOrPdfFrame":5758,"FromExistingText":5759,"SerializedScriptValue":5760,"ĠSTDOUT":5761,"ExecuteNoValueEditCommand":5762,"AndMatchStyle":5763,"CSSInsertRequest":5764,"ĠWorkerProcessLauncher":5765,"Ġdiscrete":5766,"CompositionFromExistingText":5767,"SelectionExtent":5768,"rxInstaller":5769,"MagickTrue":5770,"NotFound":5771,"tsvwg":5772,"segvguard":5773,"AdjustSelectionByCharact":5774,"DisownOpener":5775,"Ġsymbol":5776,"DidUpdateSandboxFlags":5777,"DidGetDocumentCookie":5778,"NoContentResponse":5779,"ĠUnfortunately":5780,"ExtendSelectionAndDelete":5781,"ShouldDisplayInNewTabPage":5782,"ĠPOLLRDNORM":5783,"EditableSelectionOffsets":5784,"DOORBELL":5785,"MoveRangeSelectionExtent":5786,"RunModalAlertDialog":5787,"SUCCESS":5788,"UserAgentOrigin":5789,"CorruptImageError":5790,"EndOfFile":5791,"FALLTHROUGH":5792,"LoginHtmlDialog":5793,"Misspelling":5794,"StepOpPtr":5795,"SurroundingSelectionRequest":5796,"UnexpectedEndOfFile":5797,"WINSTATIONQUERYINFORMATIONW":5798,"dynamically":5799,"watchedSelectorsRules":5800,"AdjustSelectionByCharacterOffset":5801,"\"));":5802,"\"),":5803,"&':":5804,"'-":5805,"'.":5806,"'\\":5807,"'\";":5808,"'ll":5809,"(-":5810,"(_":5811,"(__":5812,")\";":5813,"*)":5814,"*);":5815,"*\";":5816,"-)":5817,".\"":5818,".)":5819,".,":5820,".\",":5821,".).":5822,"/\")":5823,"01":5824,"02":5825,"03":5826,"11":5827,"19":5828,"10000":5829,"20":5830,"2000":5831,"40":5832,"50":5833,"512":5834,"82":5835,"84":5836,"88":5837,"94":5838,"98":5839,"=\"":5840,"=\",":5841,"=(__":5842,">&":5843,">*":5844,">::":5845,">\")":5846,"?\");":5847,"AB":5848,"AX":5849,"Al":5850,"An":5851,"Ant":5852,"ANT":5853,"ASK":5854,"Break":5855,"BRE":5856,"BAL":5857,"Browser":5858,"Bits":5859,"BIT":5860,"Bind":5861,"BMipmaps":5862,"Broker":5863,"CO":5864,"Ca":5865,"Ch":5866,"Cl":5867,"Cro":5868,"COP":5869,"Code":5870,"CIP":5871,"Check":5872,"COS":5873,"CCM":5874,"Class":5875,"Calculate":5876,"CASE":5877,"Cannot":5878,"CrxInstaller":5879,"DT":5880,"DW":5881,"Date":5882,"DIC":5883,"Dictionary":5884,"DidFinishPrinting":5885,"DXT":5886,"Dpi":5887,"Draft":5888,"DRAG":5889,"DragonFly":5890,"EW":5891,"En":5892,"ESTAR":5893,"Elements":5894,"EEXIST":5895,"FAT":5896,"Fallback":5897,"First":5898,"FIX":5899,"Filter":5900,"FRAG":5901,"Fetcher":5902,"GE":5903,"GER":5904,"GEN":5905,"GLO":5906,"GATED":5907,"GDataDirectory":5908,"GENER":5909,"HU":5910,"HW":5911,"Hur":5912,"Has":5913,"HIG":5914,"High":5915,"Hand":5916,"HUSER":5917,"HIST":5918,"HAS":5919,"HCIP":5920,"Int":5921,"IPC":5922,"Iter":5923,"IRT":5924,"ILL":5925,"JOR":5926,"KN":5927,"Kill":5928,"KNETBSD":5929,"KFREEBSD":5930,"KILL":5931,"LB":5932,"LT":5933,"LSE":5934,"Lite":5935,"Lay":5936,"LUS":5937,"Log":5938,"Linux":5939,"MS":5940,"MU":5941,"Ma":5942,"Ms":5943,"Min":5944,"Mis":5945,"MON":5946,"MIF":5947,"Mem":5948,"MALL":5949,"Merge":5950,"NG":5951,"NAGE":5952,"Next":5953,"NEL":5954,"NSEC":5955,"NEW":5956,"OW":5957,"OST":5958,"OCK":5959,"Option":5960,"OSPACE":5961,"OGRAM":5962,"Overlays":5963,"PT":5964,"Per":5965,"Par":5966,"PIN":5967,"POR":5968,"Pack":5969,"Pix":5970,"PTH":5971,"Pending":5972,"PBA":5973,"Push":5974,"PTION":5975,"PVSCSI":5976,"Poly":5977,"PWINSTATIONQUERYINFORMATIONW":5978,"PAX":5979,"PLUS":5980,"PNG":5981,"POST":5982,"Que":5983,"QUE":5984,"RB":5985,"Ren":5986,"Ring":5987,"RSE":5988,"RIP":5989,"RAR":5990,"RIG":5991,"Rand":5992,"ROID":5993,"RSR":5994,"RUNC":5995,"RAMS":5996,"Same":5997,"Sup":5998,"Sending":5999,"SCTP":6000,"Sign":6001,"SUP":6002,"SMP":6003,"Sample":6004,"SuSE":6005,"SMALL":6006,"SOCK":6007,"TF":6008,"TO":6009,"TS":6010,"TW":6011,"TAG":6012,"TSS":6013,"TOP":6014,"TOO":6015,"TOU":6016,"Time":6017,"Tick":6018,"TABLE":6019,"TSY":6020,"TURE":6021,"Title":6022,"Temporary":6023,"TLSE":6024,"UX":6025,"Use":6026,"Uint":6027,"UID":6028,"UAL":6029,"URSE":6030,"VLOG":6031,"VEL":6032,"VIRT":6033,"Win":6034,"WIN":6035,"WID":6036,"With":6037,"Write":6038,"Width":6039,"Watched":6040,"XX":6041,"XSLStyleSheet":6042,"You":6043,"[/*":6044,"[--":6045,"]\\":6046,"]->":6047,"]\");":6048,"]=\",":6049,"_),":6050,"av":6051,"ast":6052,"ara":6053,"aze":6054,"afile":6055,"aff":6056,"andidate":6057,"aled":6058,"around":6059,"audio":6060,"aneous":6061,"affine":6062,"accept":6063,"aCl":6064,"ben":6065,"bar":6066,"bly":6067,"bble":6068,"bine":6069,"bele":6070,"bes":6071,"band":6072,"brightness":6073,"bias":6074,"bidden":6075,"broker":6076,"cro":6077,"cbuf":6078,"cbreak":6079,"cil":6080,"cci":6081,"cify":6082,"cus":6083,"crm":6084,"cred":6085,"crr":6086,"cord":6087,"create":6088,"catch":6089,"cork":6090,"crop":6091,"cution":6092,"dl":6093,"dt":6094,"dv":6095,"don":6096,"dar":6097,"dist":6098,"dcb":6099,"dPipe":6100,"dication":6101,"dId":6102,"ere":6103,"eof":6104,"ech":6105,"ever":6106,"evice":6107,"equ":6108,"epc":6109,"eave":6110,"ecv":6111,"euid":6112,"egid":6113,"fv":6114,"fy":6115,"fit":6116,"fold":6117,"false":6118,"fers":6119,"font":6120,"fetcher":6121,"gment":6122,"gins":6123,"grow":6124,"gfx":6125,"gnu":6126,"green":6127,"good":6128,"global":6129,"gpointer":6130,"gmfn":6131,"gged":6132,"hint":6133,"hold":6134,"hted":6135,"hough":6136,"hald":6137,"ire":6138,"ior":6139,"ict":6140,"ico":6141,"ila":6142,"ible":6143,"impl":6144,"ident":6145,"ivers":6146,"ively":6147,"iates":6148,"jj":6149,"ki":6150,"ks":6151,"ku":6152,"kmem":6153,"kew":6154,"kpro":6155,"kIs":6156,"kAudioInput":6157,"kunmap":6158,"kFreeBSD":6159,"kNetBSD":6160,"kNull":6161,"kCreateProcess":6162,"kBits":6163,"lust":6164,"md":6165,"mpa":6166,"mnt":6167,"moid":6168,"mult":6169,"mall":6170,"mial":6171,"mally":6172,"malize":6173,"morph":6174,"mconvert":6175,"motion":6176,"mboss":6177,"mosaic":6178,"nf":6179,"nte":6180,"nate":6181,"nify":6182,"nfd":6183,"nded":6184,"npc":6185,"nmagic":6186,"none":6187,"nsity":6188,"nBy":6189,"native":6190,"nically":6191,"nchronize":6192,"nMis":6193,"nmpa":6194,"oh":6195,"oin":6196,"oad":6197,"ove":6198,"ookie":6199,"ogram":6200,"pf":6201,"pur":6202,"ping":6203,"pend":6204,"pci":6205,"pixel":6206,"post":6207,"pfn":6208,"posi":6209,"pdf":6210,"ppapi":6211,"ptible":6212,"pdiscard":6213,"polaroid":6214,"rq":6215,"rify":6216,"rie":6217,"rgh":6218,"rlayer":6219,"sv":6220,"sse":6221,"she":6222,"sce":6223,"sca":6224,"soffset":6225,"shar":6226,"saddr":6227,"sure":6228,"slow":6229,"ssed":6230,"ssent":6231,"ssid":6232,"snmp":6233,"soft":6234,"single":6235,"sstripped":6236,"support":6237,"ssive":6238,"smush":6239,"snmpa":6240,"ton":6241,"the":6242,"tint":6243,"tack":6244,"tsk":6245,"tenu":6246,"tone":6247,"tls":6248,"tnpc":6249,"uma":6250,"ulen":6251,"uent":6252,"udo":6253,"ured":6254,"uild":6255,"ugfn":6256,"uuid":6257,"uara":6258,"vt":6259,"vme":6260,"vbuf":6261,"vity":6262,"vclock":6263,"vhost":6264,"vtag":6265,"volution":6266,"voc":6267,"wid":6268,"war":6269,"wstring":6270,"work":6271,"watcher":6272,"wirl":6273,"xN":6274,"xit":6275,"xis":6276,"xhtml":6277,"xAt":6278,"yFor":6279,"your":6280,"yWait":6281,"zing":6282,"zation":6283,"};":6284,"ĉĠĠĠĠ":6285,"ĊĊĉĉĉĉĉ":6286,"Ġ,":6287,"Ġ@":6288,"ĠY":6289,"Ġ\\":6290,"ĠĊĉ":6291,"Ġet":6292,"ĠUL":6293,"Ġent":6294,"Ġ64":6295,"Ġhdr":6296,"ĠLS":6297,"ĠERROR":6298,"ĠXPath":6299,"ĠENABLE":6300,"Ġ90":6301,"Ġlayer":6302,"ĠKe":6303,"ĠATTR":6304,"Ġ....":6305,"Ġyet":6306,"Ġzcopy":6307,"Ġreached":6308,"Ġroll":6309,"Ġyour":6310,"reat":6311,"repage":6312,"reation":6313,"remap":6314,"realloc":6315,"reuse":6316,"realize":6317,"replace":6318,"received":6319,"restart":6320,"reater":6321,"reverse":6322,"remented":6323,"refptr":6324,"ined":6325,"inval":6326,"inery":6327,"invalid":6328,"indir":6329,"inbound":6330,"including":6331,"ĊĉĉĊ":6332,"ĊĉĉĠĠĠĠĠ":6333,"sepia":6334,"seudo":6335,"ĊĉĠĠĠĠĠ":6336,"ĊĉĠĠĠĠĠĠ":6337,"ĊĉĠĠĠĠĠĠĠ":6338,"Ġ('":6339,"Ġ(/*":6340,"Ġ*__":6341,"Ġ*),":6342,"Ġ*((":6343,"erase":6344,"erframe":6345,"erize":6346,"ermin":6347,"ertain":6348,"ercolor":6349,"erging":6350,"stq":6351,"stic":6352,"stError":6353,"stub":6354,"stalled":6355,"stdout":6356,"onlight":6357,"onitor":6358,"Ġtint":6359,"Ġtop":6360,"Ġtalloc":6361,"Ġtick":6362,"Ġtim":6363,"Ġtell":6364,"Ġtreat":6365,"leted":6366,"left":6367,"leep":6368,"ifing":6369,"atus":6370,"attenu":6371,"Ġcoff":6372,"Ġcut":6373,"Ġcred":6374,"Ġccm":6375,"Ġclean":6376,"Ġcatch":6377,"Ġcyc":6378,"Ġcalled":6379,"Ġcalc":6380,"Ġcustom":6381,"Ġcalculate":6382,"Ġclust":6383,"Ġcvt":6384,"Ġcertain":6385,"often":6386,"orde":6387,"orage":6388,"origin":6389,"ormally":6390,"sian":6391,"signe":6392,"sively":6393,"simult":6394,"med":6395,"mean":6396,"meta":6397,"mesh":6398,"metric":6399,"heme":6400,"heart":6401,"hesis":6402,"heses":6403,"Ġasi":6404,"Ġack":6405,"Ġali":6406,"Ġask":6407,"Ġarr":6408,"Ġampl":6409,"Ġareas":6410,"Ġassoc":6411,"Ġacc":6412,"Ġaccept":6413,"Ġaband":6414,"Ġacci":6415,"Ġaxis":6416,"intent":6417,"intensity":6418,"geometry":6419,"gether":6420,"dec":6421,"deed":6422,"desk":6423,"delay":6424,"deconstruct":6425,"denoise":6426,"Ġps":6427,"Ġpin":6428,"Ġpur":6429,"Ġpen":6430,"Ġpip":6431,"Ġpadd":6432,"Ġpred":6433,"Ġpract":6434,"Ġplace":6435,"Ġplacement":6436,"Ġposition":6437,"Ġpow":6438,"Ġpeer":6439,"Ġpvscsi":6440,"Ġpoly":6441,"Ġpict":6442,"Ġpvclock":6443,"Ġpseudo":6444,"Ġ{}":6445,"Ġ\"\"":6446,"Ġ\"*":6447,"Ġ\".":6448,"Ġ\"/":6449,"Ġ\"<":6450,"Ġ\"\",":6451,"Ġ\"'\";":6452,"alfor":6453,"alframe":6454,"alPredicate":6455,"alert":6456,"rans":6457,"radi":6458,"raight":6459,"raise":6460,"uring":6461,"urments":6462,"urating":6463,"uristics":6464,"offscreen":6465,"ening":6466,"enum":6467,"ength":6468,"enWindow":6469,"enhance":6470,"encoding":6471,"ceeded":6472,"ceptible":6473,"setting":6474,"setParent":6475,"setPlatform":6476,"ital":6477,"iting":6478,"itlist":6479,"ities":6480,"itudes":6481,"itably":6482,"ituent":6483,"mand":6484,"mance":6485,"macro":6486,"ĊĉĉĉĠ":6487,"ĊĉĉĉĠĠ":6488,"ĊĉĉĉĠĠĠĠĠ":6489,"negate":6490,"needed":6491,"Ġfp":6492,"Ġfut":6493,"Ġfil":6494,"Ġfall":6495,"Ġfine":6496,"Ġfull":6497,"Ġflow":6498,"Ġflag":6499,"Ġfilp":6500,"Ġfour":6501,"Ġfinished":6502,"ĊĉĉĉĉĠĠĠĠĠĠ":6503,"unref":6504,"unlink":6505,"unhandled":6506,"units":6507,"uninstall":6508,"unique":6509,"unnecessary":6510,"unshar":6511,"Ġibuf":6512,"Ġipipe":6513,"Ġipc":6514,"Ġirq":6515,"Ġsb":6516,"Ġsli":6517,"Ġsan":6518,"Ġsine":6519,"Ġsys":6520,"Ġsuccess":6521,"Ġscan":6522,"Ġspread":6523,"Ġsorted":6524,"Ġsince":6525,"Ġsurface":6526,"Ġsmush":6527,"Ġsmall":6528,"Ġswirl":6529,"Ġsleep":6530,"Ġsoften":6531,"othing":6532,"ingMessage":6533,"ingRuleSet":6534,"capa":6535,"cant":6536,"carv":6537,"reach":6538,"idb":6539,"ids":6540,"LEQDATE":6541,"LEQLDATE":6542,"LEQUAD":6543,"LEQWDATE":6544,"LEVEL":6545,"paint":6546,"pand":6547,"pair":6548,"panel":6549,"pagate":6550,"passed":6551,"returnval":6552,"hara":6553,"bust":6554,"build":6555,"peckle":6556,"Ġwin":6557,"Ġwall":6558,"Ġwchar":6559,"Ġword":6560,"Ġwindow":6561,"Ġwake":6562,"Ġwrit":6563,"Ġwrt":6564,"Ġwalk":6565,"uePrinterQuery":6566,"Ġnul":6567,"Ġnfd":6568,"Ġnight":6569,"Ġnlat":6570,"Ġnbadcap":6571,"Ġnice":6572,"Ġnmis":6573,"Ġnast":6574,"look":6575,"loud":6576,"ions":6577,"ional":6578,"cking":6579,"cov":6580,"come":6581,"comple":6582,"coming":6583,"coale":6584,"comb":6585,"coefficients":6586,"tes":6587,"test":6588,"strip":6589,"strcmp":6590,"strdup":6591,"stribu":6592,"stribute":6593,"Ġifdef":6594,"elif":6595,"buffs":6596,"isy":6597,"ising":6598,"isView":6599,"isually":6600,"isNull":6601,"isallow":6602,"isPrintScaling":6603,"isMobile":6604,"isfy":6605,"ĠFile":6606,"ĠFla":6607,"ĠFill":6608,"ĠFirst":6609,"ĠFork":6610,"ĠFailed":6611,"ĠFAULT":6612,"ĠFits":6613,"ĠForb":6614,"ĠFinished":6615,"ileges":6616,"ileged":6617,")));":6618,"))))":6619,")))))":6620,"xtend":6621,"utation":6622,"utoFill":6623,"laps":6624,"launch":6625,"lacing":6626,"launched":6627,"label":6628,"ssingRules":6629,"operation":6630,"operations":6631,"opWorker":6632,"ntent":6633,"cho":6634,"chop":6635,"chroot":6636,"chrome":6637,"cons":6638,"construction":6639,"convol":6640,"ĊĠĊ":6641,"ĠSome":6642,"ĠSHO":6643,"ĠSTR":6644,"ĠSuSE":6645,"Ġbits":6646,"Ġbail":6647,"Ġbias":6648,"Ġbroken":6649,"Ġblocks":6650,"adjo":6651,"adyFor":6652,"ateProcess":6653,"Ġinode":6654,"Ġindir":6655,"Ġinverse":6656,"Ġinside":6657,"Ġinev":6658,"Ġinstall":6659,"Ġindication":6660,"Ġinvoc":6661,"Ġindeed":6662,"Ġincoming":6663,"Ġreload":6664,"Ġrealloc":6665,"Ġreally":6666,"Ġreceiv":6667,"Ġreverse":6668,"Ġreported":6669,"Ġresend":6670,"Ġreconnect":6671,"Ġreserve":6672,"Ġreports":6673,"Ġremoved":6674,"Ġreconstruction":6675,"mpting":6676,"mport":6677,"Ġdst":6678,"Ġdup":6679,"Ġdie":6680,"Ġdraw":6681,"Ġduration":6682,"Ġdaze":6683,"Ġduring":6684,"eth":6685,"etsca":6686,"ERF":6687,"ERATION":6688,"ERED":6689,"ERESTAR":6690,"olor":6691,"olate":6692,"olve":6693,"Ġlib":6694,"Ġlatter":6695,"serContextPtr":6696,"eds":6697,"edge":6698,"eding":6699,"Ġmget":6700,"Ġmlist":6701,"Ġmorph":6702,"Ġmuch":6703,"Ġmotion":6704,"Ġmosaic":6705,"Ġmerging":6706,"Ġmonitor":6707,"Ġmalfor":6708,"uction":6709,"vicon":6710,"vignette":6711,"ĠIP":6712,"ĠIS":6713,"ĠIns":6714,"ĠIntent":6715,"ĠNull":6716,"ĠNOSPACE":6717,"ĠNaCl":6718,"ĠNever":6719,"ĠNxN":6720,"ĠNormally":6721,"ĠNothing":6722,"ĠNetsca":6723,"ulation":6724,"AGRAMS":6725,"arse":6726,"array":6727,"iler":6728,"ilst":6729,"liqu":6730,"like":6731,"liber":6732,"limit":6733,"any":6734,"anon":6735,"angu":6736,"Ġtoo":6737,"Ġtouch":6738,"Ġtogether":6739,"Ġvq":6740,"Ġvbuf":6741,"Ġvers":6742,"Ġvary":6743,"Ġvector":6744,"Ġvisually":6745,"Ġ14":6746,"Ġ1000":6747,"ULD":6748,"true":6749,"trim":6750,"trics":6751,"INDE":6752,"INDAT":6753,"ORIG":6754,"Ġintent":6755,"Ġintens":6756,"Ġthous":6757,"Ġthings":6758,"Ġthough":6759,"Ġthumbnail":6760,"endian":6761,"uple":6762,"Ġ/*-":6763,"printed":6764,"STRE":6765,"STACK":6766,"STERROR":6767,"STCON":6768,"ical":6769,"icular":6770,"SSION":6771,"Ġconsole":6772,"Ġconfig":6773,"Ġconvol":6774,"Ġconvolution":6775,"Ġsee":6776,"Ġseed":6777,"Ġsever":6778,"Ġsecur":6779,"Ġsepar":6780,"Ġseam":6781,"Ġsepia":6782,"Ġsegment":6783,"Ġgc":6784,"Ġgun":6785,"Ġgot":6786,"Ġgop":6787,"Ġgrr":6788,"Ġgnu":6789,"Ġgreen":6790,"Ġgain":6791,"Ġguara":6792,"Ġgreater":6793,"Ġequ":6794,"Ġemulate":6795,"Ġesrc":6796,"Ġefficient":6797,"Ġelements":6798,"Ġempty":6799,"Ġemboss":6800,"Ġecho":6801,"Ġdeci":6802,"Ġdeline":6803,"Ġdestroy":6804,"Ġdecla":6805,"Ġdecipher":6806,"Ġdensity":6807,"Ġdepend":6808,"Ġdeleted":6809,"Ġdeliber":6810,"Ġ(!((":6811,"thus":6812,"thumbnail":6813,"()\",":6814,"ataSource":6815,"MENT":6816,"foreach":6817,"ppLauncher":6818,"Ġreturnval":6819,"scall":6820,"scaling":6821,"scene":6822,"scheme":6823,"sketch":6824,"very":6825,"verage":6826,"verbo":6827,"Ġcoefficients":6828,"Ġcouple":6829,"Ġcoverage":6830,"vector":6831,"ĠOID":6832,"ĠOption":6833,"ĠOpen":6834,"Reserve":6835,"Removed":6836,"ReadyFor":6837,"ĠDon":6838,"ĠDid":6839,"ĠDie":6840,"ĠDrop":6841,"ĠDOM":6842,"ĠDragonFly":6843,"ĠDVLOG":6844,"ĠDisallow":6845,"Ġoffs":6846,"Ġoffscreen":6847,"texture":6848,"Ġubufs":6849,"Ġxpath":6850,"ĠxHCI":6851,"memcmp":6852,"ased":6853,"ĠPR":6854,"ĠPRE":6855,"ĠPIPE":6856,"ĠPCI":6857,"ĠPrepareFrame":6858,"ĠPolaroid":6859,"ĠPWINSTATIONQUERYINFORMATIONW":6860,"ĠPMU":6861,"ĠPERF":6862,"ĠParse":6863,"Information":6864,"Installed":6865,"Ġoffsetreg":6866,"Ġeludes":6867,"Ġweight":6868,"Ġwebk":6869,"SEQ":6870,"SESS":6871,"SELF":6872,"SEEK":6873,"SEQU":6874,"errors":6875,"OPE":6876,"solar":6877,"ĠTLS":6878,"ĠTime":6879,"ĠTYPE":6880,"ĠTake":6881,"ĠTell":6882,"ĠTwo":6883,"ĠTASK":6884,"ĠTech":6885,"ĠTermin":6886,"Ġour":6887,"Ġoil":6888,"forms":6889,"format":6890,"formance":6891,"cial":6892,"cient":6893,"getbuffer":6894,"favicon":6895,"mentary":6896,"nsure":6897,"namental":6898,"ationQuery":6899,"ationPending":6900,"sgl":6901,"ĠASI":6902,"ĠAPE":6903,"ĠArgh":6904,"ĠAutoFill":6905,"ĠAppLauncher":6906,"Ġmap":6907,"Ġmassive":6908,"trylock":6909,"Ġstub":6910,"Ġstay":6911,"Ġstretch":6912,"Ġstreams":6913,"Ġstdout":6914,"Ġstorage":6915,"Ġstraight":6916,"Ġanother":6917,"Ġanim":6918,"Ġancient":6919,"igno":6920,"igher":6921,"ignore":6922,"igger":6923,"taint":6924,"blend":6925,"dosh":6926,"domin":6927,"double":6928,"ENTR":6929,"ENCE":6930,"ENUM":6931,"dataLen":6932,"show":6933,"shPix":6934,"umRange":6935,"ANDROID":6936,"SLOT":6937,"ĠCR":6938,"ĠClean":6939,"ĠCom":6940,"ĠCould":6941,"ĠCopy":6942,"ĠCancel":6943,"ĠCalculate":6944,"ĠCrxInstaller":6945,"ĠCURSE":6946,"ĠCandidate":6947,"ĠCookie":6948,"ĠCloud":6949,"ĠColor":6950,"PCM":6951,"PCIE":6952,"IDS":6953,"IDTR":6954,"IDevice":6955,"users":6956,"Ġ((!":6957,"Ġ((__":6958,"Ġ((((":6959,"Ġcharcoal":6960,"ĊĉĉĉĉĉĠ":6961,"ĊĉĉĉĉĉĠĠ":6962,"Ġbecome":6963,"viewSource":6964,"RESV":6965,"REAS":6966,"REORD":6967,"cheNew":6968,"quant":6969,"Ġkmap":6970,"Ġkpro":6971,"Ġknown":6972,"ĠkIBus":6973,"ĠkCreateProcess":6974,"ĠkMin":6975,"rentCompositor":6976,"__,":6977,"way":6978,"wahara":6979,"Ġiter":6980,"ERRUP":6981,"ERRQUE":6982,"ĠMC":6983,"ĠMIP":6984,"ĠMog":6985,"ĠMove":6986,"Ġcolon":6987,"ĠEvalu":6988,"ĠEither":6989,"ĠEOF":6990,"ĠEssent":6991,"ĠEnsure":6992,"Ġprinted":6993,"ĠOnError":6994,"ĠOnDelete":6995,"ĠOnStop":6996,"ĠOnBlocked":6997,"ĠOnCut":6998,"ĠOnReload":6999,"ĠOnAddMessageToConsole":7000,"ĠOnUnselect":7001,"ĠOnFailedNavigation":7002,"ĠOnNavigate":7003,"ĠOnContextMenuClosed":7004,"ĠOnBeforeUnload":7005,"ĠOnPostMessageEvent":7006,"ĠOnVersionChange":7007,"ĠOnAbort":7008,"ĠOnCustomContextMenuAction":7009,"ĠOnRedo":7010,"ĠOnSnapshot":7011,"ĠOnSwapOut":7012,"ĠOnUndo":7013,"ĠOnVisualStateRequest":7014,"ĠOnExecuteNoValueEditCommand":7015,"ĠOnCSSInsertRequest":7016,"ĠOnDisownOpener":7017,"ĠOnDidUpdateSandboxFlags":7018,"ĠOnExtendSelectionAndDelete":7019,"ĠOnMoveRangeSelectionExtent":7020,"ĠOnAdjustSelectionByCharacterOffset":7021,"Ġhad":7022,"Ġhaven":7023,"Ġhanded":7024,"Ġopipe":7025,"ĠopenWindow":7026,"Ġnotifier":7027,"Ġnothing":7028,"Ġnotyet":7029,"olding":7030,"Ġgener":7031,"alization":7032,"resv":7033,"respect":7034,"rescale":7035,"resample":7036,"resses":7037,"resuma":7038,"resolve":7039,"faulting":7040,"Ġcolormap":7041,"Ġcolorize":7042,"Ġ'\"":7043,"Ġ';":7044,"Ġ'&':":7045,"HANDLED":7046,"ALN":7047,"Ġ21":7048,"Ġ26":7049,"Ġ270":7050,"Ġornamental":7051,"Ġbufm":7052,"Ġbuffers":7053,"oryPolicy":7054,"Ġalloc":7055,"Ġalpha":7056,"Ġalert":7057,"LOW":7058,"CTRUNC":7059,"PrintMsg":7060,"PrintFrame":7061,"PrintTo":7062,"noauth":7063,"nomial":7064,"nostic":7065,"Ġones":7066,"Ġpax":7067,"Ġpay":7068,"Ġpair":7069,"Ġpainting":7070,"Ġpausing":7071,"ĊĠĠĠĠĠĠĠĠĠĠĠĠĠĠĠĠĠĠĠĠĠĠ":7072,"SCM":7073,"SCOPE":7074,"irm":7075,"contextPos":7076,"SetUn":7077,"SetBoolean":7078,"SetHandle":7079,"SetText":7080,"SetInteger":7081,"SetAct":7082,"SetCompositor":7083,"SetNotImplemented":7084,"SetAccessibilityMode":7085,"SetCompositionFromExistingText":7086,"SetEditableSelectionOffsets":7087,"ters":7088,"Ġmetrics":7089,"constant":7090,"stanceData":7091,"Ġtrim":7092,"Ġtrunc":7093,"Ġtrigger":7094,"Ġconstituent":7095,"()),":7096,"())->":7097,"matrix":7098,"confirm":7099,"ĠvaluePush":7100,"Start":7101,"Stub":7102,"Status":7103,"StationQuery":7104,"usCon":7105,"uspace":7106,"ussian":7107,"Ġheuristics":7108,"Ġnegate":7109,"Ġnets":7110,"Ġoutbound":7111,"MACOS":7112,"MAJOR":7113,"MANAGE":7114,"UNCH":7115,"UNAV":7116,"UNSUP":7117,"UNHANDLED":7118,"UNMANAGE":7119,"elem":7120,"freebsd":7121,"Ġhue":7122,"Ġhist":7123,"Ġhour":7124,"Ġhow":7125,"Ġhowever":7126,"Ġhigher":7127,"ĊĉĉĉĉĉĉĠĠĠĠ":7128,"GetEx":7129,"GetImpl":7130,"GetLa":7131,"GetPrintSettings":7132,"GetPages":7133,"GetMediaDeviceManager":7134,"GetFunction":7135,"GetParent":7136,"GetDevices":7137,"GetNativeLibrary":7138,"GetRoutingID":7139,"GetNext":7140,"GetWatched":7141,"GetInstalled":7142,"ICE":7143,"ICETYPE":7144,"ICASE":7145,"extent":7146,"extract":7147,"extended":7148,"ableEvent":7149,"Ġrx":7150,"Ġrbuf":7151,"Ġrate":7152,"Ġrates":7153,"Ġadding":7154,"Ġaddresses":7155,"Ġexclude":7156,"Ġexisting":7157,"Ġexceeded":7158,"osal":7159,"Ġcare":7160,"Ġcaption":7161,"signoff":7162,"sigmoid":7163,"Ġassem":7164,"caption":7165,"Ġdescrip":7166,"(\"'-":7167,"DBusCon":7168,"NodePtr":7169,"background":7170,"chars":7171,"charcoal":7172,"istMagick":7173,"tive":7174,"Ġ403":7175,"ĠVector":7176,"ĠVCPU":7177,"Ġstrip":7178,"Ġapplic":7179,"Ġ\",\"":7180,"BEQDATE":7181,"BEQLDATE":7182,"BEQUAD":7183,"BEQWDATE":7184,"DEPTH":7185,"exclude":7186,"existing":7187,"exprOp":7188,"express":7189,"execv":7190,"expand":7191,"Ġunhandled":7192,"Ġuninstall":7193,"Ġunused":7194,"Ġunique":7195,"Ġunsuccessful":7196,"Ġunauthent":7197,"Ġunnecessary":7198,"Ġunneeded":7199,"Ġendwin":7200,"Ġendian":7201,"Ġsketch":7202,"Ġskbuffs":7203,"ACKs":7204,"LITE":7205,"appAd":7206,"appMo":7207,"appRemoved":7208,"rmode":7209,"Ġnamed":7210,"Ġnames":7211,"Ġnamesize":7212,"regfree":7213,"regcomp":7214,"regard":7215,"regmatch":7216,"(((":7217,"prPtr":7218,"DeviceManagementBackend":7219,"Decoding":7220,"Demand":7221,"Ġnewp":7222,"Ġnewly":7223,"ĠnewContextSize":7224,"unds":7225,"unding":7226,"undercolor":7227,"Ġwhilst":7228,"NTP":7229,"NTCOP":7230,"aging":7231,"agnostic":7232,"outine":7233,"outMs":7234,"inity":7235,"initialized":7236,"initions":7237,"defined":7238,"Ġnoblock":7239,"Ġnocbreak":7240,"Ġnoisy":7241,"Ġsetup":7242,"Ġtrap":7243,"Ġtravers":7244,"Ġtracking":7245,"Ġmatte":7246,"lighted":7247,"ONFLY":7248,"direction":7249,"distribute":7250,"kvmclock":7251,"spread":7252,"splice":7253,"sperframe":7254,"ĠGC":7255,"ĠGas":7256,"ĠGIF":7257,"ĠGener":7258,"ĠGenerate":7259,"ĠGTK":7260,"ĠGDT":7261,"ĠGDBusCon":7262,"ĠGNTCOP":7263,"Ġattent":7264,"Ġatomic":7265,"Ġattribute":7266,"Ġattack":7267,"netif":7268,"netprio":7269,"netbsd":7270,"Ġface":7271,"Ġfamily":7272,"Ġfactor":7273,"tedFrameOnUI":7274,"CHED":7275,"Ġmiscellaneous":7276,"ĠThus":7277,"EXCE":7278,"EXPRE":7279,"EXIT":7280,"EXTEND":7281,"EXCHAN":7282,"FORCE":7283,"emboss":7284,"ially":7285,"ized":7286,"Ġproc":7287,"Ġprop":7288,"Ġprogress":7289,"lowed":7290,"coprocess":7291,"ĠcontextPos":7292,"NOTICE":7293,"Observe":7294,"SDOWN":7295,"THREAD":7296,"obtain":7297,"object":7298,"Ġcopious":7299,"Ġprio":7300,"Ġpriv":7301,"INTERRUP":7302,"ARIS":7303,"cmds":7304,"cmfptr":7305,"fft":7306,"ffix":7307,"perty":7308,"perceptible":7309,"ording":7310,"chunklen":7311,"chunkhdr":7312,"Ġcookiepkt":7313,"Requested":7314,"RequestID":7315,"RequestInfo":7316,"Ġpipes":7317,"Ġcounts":7318,"Ġcounters":7319,"ĠASCONFs":7320,"OFFADD":7321,"PaX":7322,"Parameter":7323,"ivity":7324,"ives":7325,"iveURL":7326,"number":7327,"MEMSLOT":7328,"ĠPrintingMessage":7329,"Ġ>>=":7330,"ightRatio":7331,").\\":7332,"esrc":7333,"Ġbased":7334,"Ġbasereg":7335,"Complete":7336,"CommitNavigation":7337,"PEG":7338,"TED":7339,"shade":7340,"shave":7341,"Ġmsgtype":7342,"Ġmsgpkt":7343,"Ġmsgseq":7344,"Ġmsgpayload":7345,"Ġolder":7346,"Ġoldfs":7347,"Ġcork":7348,"Ġcoroutine":7349,"cookielen":7350,"Exiting":7351,"ExprPtr":7352,"IGNOR":7353,"Manager":7354,"proc":7355,"propagate":7356,"prompting":7357,"ĠUD":7358,"ĠUh":7359,"ĠUse":7360,"ĠUMA":7361,"ĠUrl":7362,"ĠURG":7363,"ĠUTF":7364,"Ġside":7365,"Ġsimple":7366,"Ġraw":7367,"Ġraise":7368,"Ġraising":7369,"requests":7370,"Ġprevent":7371,"Ġpresent":7372,"Ġpreviously":7373,"Ġprecision":7374,"Ġpertain":7375,"Ġperformance":7376,"Ġkvmclock":7377,"Ġtransmit":7378,"Ġtransforms":7379,"badseek":7380,"ĠRun":7381,"ĠRand":7382,"Ġart":7383,"Ġpoints":7384,"Ġpointing":7385,"Ġpointers":7386,"Ġrecreation":7387,"paramlen":7388,"paramhdr":7389,"Ġcopying":7390,"ErrorCode":7391,"OOM":7392,"ProcessHost":7393,"ProcessDelegate":7394,"ProcessLaunched":7395,"ViewRen":7396,"appear":7397,"uses":7398,"weight":7399,"Ġ80":7400,"Ġ819":7401,"ĠLeave":7402,"ĠLoad":7403,"ĠLength":7404,"ĠListMagick":7405,"Ġretry":7406,"Ġretrie":7407,"Ġretrans":7408,"ĠResize":7409,"ĠResponse":7410,"ĠRemove":7411,"ĠRecord":7412,"Ġpackaged":7413,"Ġverifier":7414,"Ġverification":7415,"Ġverifing":7416,"Ġmagiccheck":7417,"dexedDBDispatcher":7418,"LABLE":7419,"LASTERROR":7420,"LAUNCH":7421,"OUT":7422,"OnDevice":7423,"OnObject":7424,"OnScriptedPrint":7425,"OnGetDevices":7426,"OnProcessLaunched":7427,"ToExe":7428,"ToBoolean":7429,"ToBe":7430,"Ġshout":7431,"Ġbackend":7432,"Ġbackward":7433,"ĠInsert":7434,"ĠInstanceData":7435,"ĠIndexedDBDispatcher":7436,"Result":7437,"Ġanyway":7438,"WebKit":7439,"WebUID":7440,"AIT":7441,"AILABLE":7442,"SGSIZE":7443,"SGState":7444,"mined":7445,"minPos":7446,"Ġlost":7447,"Ġlogged":7448,"Ġtexture":7449,"stringstream":7450,"Ġused":7451,"Ġuseful":7452,"Ġstdin":7453,"Ġstdio":7454,"CHUNK":7455,"NOMEM":7456,"NOMATCH":7457,"VALID":7458,"save":7459,"sability":7460,"sampling":7461,"atchCommand":7462,"maxopened":7463,"parentStyleSheet":7464,"parentheses":7465,"Ġrequests":7466,"ĠIDS":7467,"*/;":7468,"APP":7469,"AddUn":7470,"AddShutdown":7471,"IsFrom":7472,"IsDevice":7473,"IsActiv":7474,"IsSame":7475,"Screen":7476,"ands":7477,"android":7478,"Ġleave":7479,"Ġlets":7480,"Ġlesse":7481,"Ġfragoff":7482,"canny":7483,"compress":7484,"compose":7485,"composite":7486,"compensation":7487,"Ġbox":7488,"Ġboundary":7489,"Ġbounding":7490,"Ġbypass":7491,"Ġrescale":7492,"Ġrendering":7493,"REGS":7494,"Ġtrying":7495,"Bookmark":7496,"Boundary":7497,"Bounds":7498,"CONSU":7499,"CONSTCON":7500,"ForDocument":7501,"ForPlugin":7502,"Forward":7503,"Forbidden":7504,"PREDIC":7505,"bilities":7506,"ĠXSLStyleSheet":7507,"ĠXHCIP":7508,"ĠXXX":7509,"Ġbubble":7510,"Ġcurrently":7511,"margins":7512,"Ġsaved":7513,"Ġshade":7514,"Ġshape":7515,"Ġshave":7516,"Ġshaped":7517,"parse":7518,"partial":7519,"ĠNOTIFICATION":7520,"Ġintermedi":7521,"Ġinterior":7522,"Ġinterlacing":7523,"Ġcompiled":7524,"Ġcompositor":7525,"Ġcomputation":7526,"Ġcompiler":7527,"ĠThey":7528,"PrintingContext":7529,"PrintingFailed":7530,"PrintingResult":7531,"transverse":7532,"transpose":7533,"transmitted":7534,"Ġprogramming":7535,"--,":7536,"FromPos":7537,"FromPrintSettings":7538,"FromMedia":7539,"FromUser":7540,"FromParent":7541,"FromCss":7542,"FromRoutingID":7543,"Serial":7544,"blocksperframe":7545,"hva":7546,"nings":7547,"precision":7548,"predomin":7549,"ĠHZ":7550,"ĠHandle":7551,"ĠHald":7552,"ĠHere":7553,"ĠHitlist":7554,"ĠHolding":7555,"Ġgets":7556,"step":7557,"ĠSTACK":7558,"ĠSendNoContentResponse":7559,"ĠSendForbidden":7560,"ĠDeviceManager":7561,"DeviceId":7562,"DeviceNotFound":7563,"colorspace":7564,"colorize":7565,"rowserViewRen":7566,"CallbacksError":7567,"CallbacksBlocked":7568,"CallbacksVersionChange":7569,"ĠClientHellos":7570,"DoGenerate":7571,"Metafile":7572,"PageRange":7573,"PageCount":7574,"PageLay":7575,"PreviewModifiable":7576,"Unava":7577,"Unused":7578,"Uncommit":7579,"Unlike":7580,"Ġjoin":7581,"ĠGetMediaDeviceManager":7582,"ĠGetContent":7583,"ĠGetInputContext":7584,"ĠGetClient":7585,"ĠGetPrintScaling":7586,"ĠGetDevices":7587,"ĠGetPrintFrame":7588,"devs":7589,"Ġsuppose":7590,"Ġsuppress":7591,"roots":7592,"Ġlistening":7593,"Ġsends":7594,"Ġsending":7595,"InstanceID":7596,"InstanceData":7597,"ĠAddPoly":7598,"pectedPageCount":7599,"CreateFile":7600,"CreateInstance":7601,"CreateAudioInput":7602,"SKB":7603,"beat":7604,"blers":7605,"dispatch":7606,"dispose":7607,"dispatcher":7608,"disposition":7609,"linear":7610,"xmlXPathComp":7611,"xmlXPathNodeSet":7612,"xmlXPathReleaseObject":7613,"xmlXPathCompOpEval":7614,"xmlXPathContextPtr":7615,"xmlXPathObjectPtr":7616,"xmlXPathStepOpPtr":7617,"xmlXPathPar":7618,"Ġedst":7619,"Ġviewing":7620,"Ġclientvers":7621,"Ġchecks":7622,"median":7623,"Ġphoto":7624,"Ġspeckle":7625,"Ġthresholding":7626,"ResourceFromParent":7627,"ĠxmlXPathNodeSet":7628,"ĠxmlXPathObjectPtr":7629,"ĠxmlXPathStepOpPtr":7630,"ĠxmlXPathCa":7631,"Ġobserver":7632,"Ġparenthesis":7633,"Ġstrings":7634,"ĊĠĠĠĠĠĠĠĠĠĠĠĠĠĠĠĠĠĠĠĠĠĠĠĠĠĠĠĠĠĠĠĠĠĠĠĠĠĠĠĠĠĠĠĠĠĠĠĠ":7635,"ExecuteGet":7636,"ExecuteDelete":7637,"ExecutePost":7638,"HTS":7639,"OMPLETE":7640,"TypedId":7641,"antialias":7642,"antumRange":7643,"kErrorResponse":7644,"kErrorHttp":7645,"kErrorTemporary":7646,"pointsize":7647,"indexes":7648,"stroke":7649,"strokew":7650,"Ġtimes":7651,"ificant":7652,"reamDeviceInfo":7653,"laris":7654,"larity":7655,"ĠSettings":7656,"ĠSetApp":7657,"ĠSIGKILL":7658,"Ġdisk":7659,"Ġdisable":7660,"Ġdisabled":7661,"Ġdisappear":7662,"Ġextend":7663,"Ġextended":7664,"Ġevaluating":7665,"Ġdetermined":7666,"Ġmaybe":7667,"Ġformatting":7668,"Ġformatted":7669,"waitqueue":7670,"Ġoriginated":7671,"pectorView":7672,"pectorTest":7673,"Composite":7674,"SelectRange":7675,"SelectAll":7676,"webview":7677,"CMODE":7678,"NsPtr":7679,"UIID":7680,"finalframe":7681,"gaussian":7682,"ĠBP":7683,"ĠBump":7684,"ĠBroken":7685,"ĠBINTE":7686,"ĠBuild":7687,"ĠBased":7688,"ĠBrowserViewRen":7689,"Ġvignette":7690,"Ġviolate":7691,"Ġotherwise":7692,"separate":7693,"magiccheck":7694,"magicfind":7695,"nectToExe":7696,"INSTALL":7697,"INSTAN":7698,"INSTALLED":7699,"INSTANT":7700,"Ġgranu":7701,"Ġdelegated":7702,"OPINDIRECT":7703,"Ġstateful":7704,"tables":7705,"ĠChildFrame":7706,"BUSY":7707,"NodeSetPtr":7708,"DefaultPipeName":7709,"Ġmatching":7710,"ParamsFromPrintSettings":7711,"SERVERHELLO":7712,"marks":7713,"AudioParameter":7714,"AudioManager":7715,"DirectoryService":7716,"FPUSE":7717,"FPKN":7718,"LINUX":7719,"Nothing":7720,"NotSup":7721,"UPDAT":7722,"WindowController":7723,"cvt":7724,"clearpkt":7725,"duplicate":7726,"ept":7727,"numport":7728,"Ġlower":7729,"Ġservers":7730,"Ġtables":7731,"Ġcmd":7732,"interlace":7733,"interline":7734,"interpol":7735,"interword":7736,"ranges":7737,"Ġwrites":7738,"Ġwriteaccess":7739,"ĠinspectorView":7740,"Ġremoves":7741,"licity":7742,"Ġstored":7743,"SIGSEGV":7744,"ĠMAY":7745,"ĠOnSuccessOpen":7746,"ĠOnSuccessStringList":7747,"ĠOnSuccessIndexedDBKey":7748,"ĠOnSuccessSerializedScriptValue":7749,"spinlocks":7750,"Ġfaulting":7751,"CallbacksSuccessStringList":7752,"CallbacksSuccessIndexedDBKey":7753,"CallbacksSuccessSerializedScriptValue":7754,"EMPT":7755,"EMSGSIZE":7756,"Focus":7757,"SYM":7758,"SYMT":7759,"UDPLITE":7760,"clamp":7761,"classid":7762,"drawFocus":7763,"module":7764,"modulate":7765,"modified":7766,"modifiable":7767,"poly":7768,"policy":7769,"rtnl":7770,"subtype":7771,"Ġenable":7772,"Ġencoding":7773,"Ġenough":7774,"Ġensure":7775,"Ġsignaling":7776,"Ġsignificant":7777,"ĠREGEX":7778,"Ġchannels":7779,"dentry":7780,"dentally":7781,"Ġfreeing":7782,"Ġfilters":7783,"openWindow":7784,"ĠSection":7785,"ĠSeekBlob":7786,"ĠStopWorker":7787,"ĠStreamDeviceInfo":7788,"ĠSkipRG":7789,"ĠSkipDXT":7790,"Ġregular":7791,"Ġeventually":7792,"Initialize":7793,"Ġhappens":7794,"ĠVMCS":7795,"ĠWebKitWebView":7796,"StyleResolverForDocument":7797,"PROG":7798,"Ġradial":7799,"Ġshouldn":7800,"IBusProp":7801,"kSettingGenerate":7802,"kSettingMargins":7803,"kSettingPreviewModifiable":7804,")((__":7805,"CSUM":7806,"GROW":7807,"ISREG":7808,"ISREPLY":7809,"ITLB":7810,"ITCHED":7811,"Module":7812,"QuantumRange":7813,"Solaris":7814,"TextSurroundingSelectionRequest":7815,"WRONG":7816,"caller":7817,"fraglen":7818,"ldf":7819,"merge":7820,"merElements":7821,"sembly":7822,"status":7823,"statistic":7824,"Ġtaken":7825,"Ġauthent":7826,"Ġfloat":7827,"Ġfloodfill":7828,"Ġiocb":7829,"Ġiommu":7830,"Ġscaling":7831,"Ġsufficient":7832,"Ġsuffix":7833,"Ġsynchronize":7834,"Ġsyscall":7835,"reason":7836,"Ġincremented":7837,"Ġdistribu":7838,"Ġdiagnostic":7839,"Ġdisplace":7840,"Ġdisposal":7841,"Ġdropped":7842,"Ġmodify":7843,"Ġcontaining":7844,"Ġselectively":7845,"ĠDoS":7846,"Ġoverwrite":7847,"Ġoverlaps":7848,"ĠAVPack":7849,"ĠAlso":7850,"ĠAlready":7851,"Ġstarts":7852,"quality":7853,"ĠMakeTypedId":7854,"Ġoperators":7855,"PrintPreviewFailed":7856,"PrintPreviewCancel":7857,"PrintPreviewInvalid":7858,"PrintPreviewScaling":7859,"Ġfailing":7860,"PassUncommit":7861,"Ġcorruption":7862,"srpinfo":7863,"srpgN":7864,"ĠInputMethodIsActiv":7865,"Ġgraphics":7866,"AudioInputHost":7867,"AudioInputSample":7868,"JavaScriptExecuteRequestInIsolatedWorld":7869,"JavaScriptExecuteRequestForTests":7870,"AutoFill":7871,"AppInfo":7872,"BusyWait":7873,"Channels":7874,"ChannelHandle":7875,"ChannelProxy":7876,"DidPreviewDocument":7877,"DONTW":7878,"FreeNs":7879,"HeightRatio":7880,"ListBase":7881,"NoNew":7882,"Network":7883,"NamedPipe":7884,"PluginDelegate":7885,"msix":7886,"sysconf":7887,"xmlDoc":7888,"xmlNodePtr":7889,"xmlNsPtr":7890,"oneed":7891,"Ġappear":7892,"Ġactual":7893,"Ġportion":7894,"rargs":7895,"rarily":7896,"magnify":7897,"packetized":7898,"tempts":7899,"Ġblue":7900,"Ġrecursive":7901,"Ġrecursively":7902,"Ġdifference":7903,"Ġdiffu":7904,"Ġmount":7905,"Ġmoved":7906,"Ġmoonlight":7907,"Ġmsix":7908,"Ġmulti":7909,"INCOMPLETE":7910,"Ġgood":7911,"Ġdetailed":7912,"Ġcomment":7913,"Ġcomments":7914,"Ġcombine":7915,"ĠOPEN":7916,"factor":7917,"Ġannotation":7918,"checksum":7919,"ĠMaybeLaunchInputMethod":7920,"ĠMaybeDestroyIBusConfig":7921,"Ġ204":7922,"Ġnetdev":7923,"Ġnetbk":7924,"LIBRAR":7925,"ObserverListBase":7926,"ĠUnmap":7927,"ĠUnloadedExtensionInfo":7928,"ĠUnpriv":7929,"LINEAR":7930,"Ġterminates":7931,"ĠInputMethodLibraryStub":7932,"ByBroker":7933,"CopyToFindPboard":7934,"NMIUNKNOWN":7935,"SeekBlob":7936,"ScopedStyleResolver":7937,"ScopedNativeLibrary":7938,"changes":7939,"normalize":7940,"treedepth":7941,"treeBoundary":7942,"xac":7943,"xbc":7944,"Ġ...)":7945,"Ġzeroed":7946,"Ġzeroes":7947,"Ġreassembly":7948,"Ġimplode":7949,"Ġidentified":7950,"Ġsaturating":7951,"Ġsatisfy":7952,"Ġsomething":7953,"Ġworkaround":7954,"Ġdtls":7955,"Ġminor":7956,"Ġcontroller":7957,"ReplaceMisspelling":7958,"Ġxenvif":7959,"ĠPepperPlatformAudioInput":7960,"ĠPepperAudioInputHost":7961,"Ġmanner":7962,"Ġmanager":7963,"Ġmanaged":7964,"Ġmanaging":7965,"Ġmachinery":7966,"Ġmappings":7967,"ĠConvert":7968,"ĠConnectToExe":7969,"quiet":7970,"ĠOnSelectRange":7971,"ĠOnSelectAll":7972,"Ġallows":7973,"Ġmeasured":7974,"Ġmeasurments":7975,"StreamType":7976,"StreamDeviceInfo":7977,"Ġproblem":7978,"Ġprofiles":7979,"PasteAndMatchStyle":7980,"ĠReturnUnused":7981,"ĠReturnResourceFromParent":7982,"Ġadaptive":7983,"Ġleaps":7984,"Ġleaks":7985,"Opened":7986,"OpenBSD":7987,"OpenDevice":7988,"ĠXHCIState":7989,"Ġshadows":7990,"AndViewFromCss":7991,"largepages":7992,"Ġdiscard":7993,"collectViewportRulesTo":7994,"DisabledForPlugin":7995,"ShouldAnt":7996,"ShouldUse":7997,"AuthController":7998,"AccessibilityMsg":7999,"AccessibilityTree":8000,"ThreadImpl":8001,"kSettingHeaderFooterURL":8002,"kSettingHeaderFooterDate":8003,"kSettingHeaderFooterEn":8004,"kSettingHeaderFooterTitle":8005,"!!\\":8006,"!!!!\\":8007,"\")));":8008,"BLOB":8009,"CAPTURE":8010,"COMP":8011,"COMPAT":8012,"COMPLETE":8013,"Changed":8014,"CancelRequest":8015,"DOW":8016,"DrawHw":8017,"ENDCAP":8018,"GHZ":8019,"GINS":8020,"GETLASTERROR":8021,"GenerateAuthToken":8022,"NONE":8023,"NativeWindow":8024,"Property":8025,"PositionalPredicate":8026,"PepperPlatformAudioInput":8027,"PolicyController":8028,"PolicyNotFound":8029,"ProfileStyle":8030,"PdfRequested":8031,"RenderFrameImpl":8032,"RenderFrameObserver":8033,"SNMP":8034,"SWITCHED":8035,"TokenInvalid":8036,"disable":8037,"flop":8038,"float":8039,"floodfill":8040,"highlight":8041,"hugecache":8042,"kerning":8043,"kDefaultWidth":8044,"kDefaultDeviceId":8045,"kDefaultHeightRatio":8046,"ochrome":8047,"owner":8048,"poses":8049,"Ġlaunch":8050,"Ġlabel":8051,"Ġlabele":8052,"Ġlargepage":8053,"selective":8054,"Ġtakes":8055,"interrupt":8056,"density":8057,"despeckle":8058,"Ġparts":8059,"Ġparticular":8060,"Ġsplice":8061,"Ġsptes":8062,"Ġslowly":8063,"Ġscales":8064,"Ġrects":8065,"Ġrectype":8066,"Ġrectangu":8067,"Ġresets":8068,"Ġresetting":8069,"Ġrequires":8070,"Ġmmio":8071,"Ġmodel":8072,"ĠIsPrintTo":8073,"ĠIBusBus":8074,"ĠIBusInputContext":8075,"ĠIBusProperty":8076,"Ġvalidation":8077,"Ġ100000":8078,"Ġconnected":8079,"Ġconnectivity":8080,"ĠDispatchCommand":8081,"ĠPaX":8082,"ĠPaeth":8083,"ĠParentCompositor":8084,"ĠPluginModule":8085,"ĠPVSCSISGState":8086,"OPERATION":8087,"OPENBSD":8088,"agedState":8089,"Ġstatistic":8090,"REPORT":8091,"ĠErrorToString":8092,"ĠOnSetAccessibilityMode":8093,"ĠOnSetCompositionFromExistingText":8094,"ĠOnSetEditableSelectionOffsets":8095,"ĠOnJavaScriptExecuteRequestInIsolatedWorld":8096,"ĠOnJavaScriptExecuteRequestForTests":8097,"aliasing":8098,"PrinterSettings":8099,"ADRALN":8100,"Ġmedian":8101,"StopWorker":8102,"UNINSTALL":8103,"Ġholding":8104,"GetApps":8105,"Ġrotation":8106,"Ġaddiphdr":8107,"Ġexpects":8108,"Ġmathematics":8109,"Ġmathematically":8110,"Ġmathematical":8111,"InputMethodLibrary":8112,"Ġproperly":8113,"observers":8114,"ĠUpdateMem":8115,"Ġarbitrarily":8116,"ĠResetScriptedPrint":8117,"ĠInitDirectoryService":8118,"ĠHttpRequestInfo":8119,"ĠHttpNetwork":8120,"ĠHttpAuthController":8121,"DatabaseCallbacksVersionChange":8122,"kErrorServiceActiv":8123,"kErrorServiceDeviceNotFound":8124,"kErrorServicePolicyNotFound":8125,"CompositorFrame":8126,"rdmsrl":8127,"SIGNAL":8128,"Ġhighlights":8129,"Ġargument":8130,"CallbacksSuccessIDBCursor":8131,"CallbacksSuccessIDBTransaction":8132,"CallbacksSuccessIDBDatabase":8133,"IBusConnection":8134,"ĠRenderFrameObserverTracker":8135,"Ġhandling":8136,"Ġ...]\\":8137,"Ġreasons":8138,"Ġreasonably":8139,"DYNSYM":8140,"WaitableEvent":8141,"WaitNamedPipe":8142,"ĠINDIROFFADD":8143,"://\"":8144,"://\";":8145,"AVFormat":8146,"CssInfo":8147,"DaemonPath":8148,"HttpAuth":8149,"Length":8150,"MaybeDestroyIBusConfig":8151,"MaybeGenerateAuthToken":8152,"OWNER":8153,"SendNotImplemented":8154,"SendNoContentResponse":8155,"SOLARIS":8156,"fuzz":8157,"grayscale":8158,"gravity":8159,"implicit":8160,"implode":8161,"kPreviewRequestID":8162,"kPreviewUIID":8163,"monitor":8164,"monochrome":8165,"miscellaneous":8166,"swevent":8167,"swirl":8168,"scopedStyleResolverForDocument":8169,"sparc":8170,"sparse":8171,"successfully":8172,"without":8173,"xxx":8174,"xenvif":8175,"ĠJust":8176,"ĠJPEG":8177,"Ġcreator":8178,"Ġcreating":8179,"Ġcallchain":8180,"Ġchanges":8181,"Ġchanging":8182,"siblingRules":8183,"siblingRuleSet":8184,"delta":8185,"Ġpeek":8186,"Ġpeeked":8187,"Ġpcie":8188,"allowed":8189,"manager":8190,"managedState":8191,"Ġworth":8192,"Ġworry":8193,"Ġwavelet":8194,"comment":8195,"compare":8196,"ĠFromStreamDeviceInfo":8197,"ĠSpecify":8198,"ĠSpecial":8199,"Ġreduction":8200,"Ġresilient":8201,"Ġresizing":8202,"Ġreceiver":8203,"Ġreceivers":8204,"Ġresources":8205,"Ġdigits":8206,"Ġdigital":8207,"Ġdistort":8208,"Ġdistant":8209,"Ġlighten":8210,"Ġlimited":8211,"virtqueue":8212,"virtual":8213,"ĠNMIs":8214,"annotate":8215,"Ġvarargs":8216,"Ġdecrease":8217,"Ġdefine":8218,"Ġdefinitions":8219,"Ġcomplex":8220,"Ġcomplementary":8221,"ReplyParams":8222,"ĠxmlNode":8223,"ĠxmlNodeSetPtr":8224,"ĠPCIDevice":8225,"getappinfo":8226,"getapptable":8227,"Ġmarked":8228,"ĠCreateAppInfo":8229,"Ġkey":8230,"Ġkeep":8231,"ĠkPipeConnect":8232,"ĠkPipeBusyWait":8233,"wavelet":8234,"ĠOnComplete":8235,"ĠOnCommitNavigation":8236,"ĠOnTextTrackSettings":8237,"ĠOnTextSurroundingSelectionRequest":8238,"ĠOnCopyToFindPboard":8239,"ĠOnReplaceMisspelling":8240,"ĠOnPasteAndMatchStyle":8241,"oldContextNode":8242,"oldContextDoc":8243,"Ġgeteuid":8244,"Ġgetegid":8245,"Ġ'^':":8246,"Ġ'^')":8247,"Ġ255":8248,"Ġ256":8249,"Ġorientation":8250,"Ġalternate":8251,"mattecolor":8252,"Ġnesting":8253,"Ġnested":8254,"MARCH":8255,"MARGINS":8256,"ConnectChannel":8257,"Ġexists":8258,"DEVICETYPE":8259,"DELETE":8260,"DELEGATED":8261,"registering":8262,"EXISTING":8263,"INTEGER":8264,"ĠPrintPropList":8265,"Ġsimply":8266,"Ġsimplicity":8267,"Ġprecede":8268,"Ġpreceeding":8269,"ĠRenderParamsFromPrintSettings":8270,"ĠRenderThreadImpl":8271,"ĠResourceTracker":8272,"LAYER":8273,"LAYOUT":8274,"CHANNEL":8275,"authenticate":8276,"IsEqual":8277,"IsEmpty":8278,"Ġletters":8279,"compatible":8280,"Metric":8281,"Metrics":8282,"ĠxmlXPathNodeSetClearFromPos":8283,"ĠxmlXPathCompOpEvalPredicate":8284,"ĠxmlXPathCompOpEvalToBoolean":8285,"kErrorRequestFailed":8286,"kErrorRequestInvalid":8287,"kErrorServiceManagementNotSup":8288,"kErrorServiceManagementTokenInvalid":8289,"SelectPopupMenuItem":8290,"SelectPopupMenuItems":8291,"LaunchedProcess":8292,"NotificationDetails":8293,"NotificationSource":8294,"ĠOnSuccessCursorContinue":8295,"ĠOnSuccessCursorPrefetch":8296,"ĠOnSuccessIDBTransaction":8297,"ĠOnSuccessIDBDatabase":8298,"Ġexplicitly":8299,"CallbacksSuccessCursorContinue":8300,"CallbacksSuccessCursorPrefetch":8301,"Ġsucceeded":8302,"Ġsucceeds":8303,"PipeNameClass":8304,"LaunchInputMethodProcess":8305,"AUDIOCAPTURE":8306,"Ġfixups":8307,"Ġeverything":8308,"ĠOnSelectPopupMenuItem":8309,"ĠOnSelectPopupMenuItems":8310,"Ġmeasurement":8311,"TransactionCallbacksAbort":8312,"TransactionCallbacksComplete":8313,"DrawConstraintsOnUI":8314,"ProxyAuthToken":8315,"ĠUpdateFrameMargins":8316,"ĠUpdateFrameAndViewFromCss":8317,"Ġinterpreter":8318,"ServerQueryResponse":8319,"ServerQueryMetric":8320,"MobileProfileStyle":8321,"SnapshotTree":8322,"regexec":8323,"Ġpotentially":8324,"uncommonAttributeRules":8325,"uncommonAttributeRuleSet":8326,"Ġspanning":8327,"Ġrespond":8328,"Ġresponsability":8329,"ĠWorkerProcessLauncherTest":8330,"1000000":8331,"Allowed":8332,"BREAK":8333,"BrowserOverlays":8334,"BITMAP":8335,"COUNT":8336,"ChildFrame":8337,"CrossingRules":8338,"CalculateScreen":8339,"DWORD":8340,"DraftData":8341,"DRAGONFLY":8342,"FATAL":8343,"FallbackTick":8344,"FirstRequest":8345,"FIXUP":8346,"FRAGMENT":8347,"GLOBAL":8348,"GDataDirectoryService":8349,"GENERATE":8350,"HURD":8351,"Hurd":8352,"HasFrameOnUI":8353,"HIGHUSER":8354,"Highlighted":8355,"Handler":8356,"HISTOGRAM":8357,"IntRect":8358,"Iterator":8359,"KillProcess":8360,"MSB":8361,"MaxAt":8362,"MONO":8363,"MIFF":8364,"MergeDictionary":8365,"NEWLINE":8366,"PerAudioInputSample":8367,"PORTED":8368,"PVSCSIRequest":8369,"QueuePrinterQuery":8370,"RIGHTS":8371,"RandUint":8372,"RSRC":8373,"Signaled":8374,"SOCKET":8375,"TOPLEVEL":8376,"TOUCH":8377,"TimeoutMs":8378,"TSYS":8379,"TLSEXT":8380,"VIRTUAL":8381,"WinStationQuery":8382,"WINDOW":8383,"WIDGET":8384,"WithLaunchedProcess":8385,"WriteReplyParams":8386,"affinity":8387,"aneously":8388,"bench":8389,"catchup":8390,"cutionServer":8391,"donote":8392,"darken":8393,"distort":8394,"dcbnl":8395,"equalize":8396,"ilable":8397,"identify":8398,"kuwahara":8399,"kprobes":8400,"kIsFirstRequest":8401,"kAudioInputChannels":8402,"kNullProcessHandle":8403,"kCreateProcessDefaultPipeName":8404,"kBitsPerAudioInputSample":8405,"ntees":8406,"nMiscellaneous":8407,"purge":8408,"posterize":8409,"positive":8410,"rifyUsage":8411,"shear":8412,"softmagic":8413,"supports":8414,"snmpapp":8415,"toned":8416,"vmexit":8417,"widget":8418,"warnings":8419,"xhtmlMobileProfileStyle":8420,"Ġetc":8421,"ĠULONG":8422,"Ġentire":8423,"ĠLSB":8424,"ĠKeep":8425,"ĠATTRIB":8426,"invalidate":8427,"Ġticket":8428,"Ġtimer":8429,"attenuate":8430,"Ġcyclic":8431,"Ġcalculation":8432,"Ġcalculated":8433,"Ġclusters":8434,"ordered":8435,"originator":8436,"signextend":8437,"simultaneously":8438,"metafile":8439,"heartbeat":8440,"Ġaligned":8441,"Ġasked":8442,"Ġarrives":8443,"Ġamplitudes":8444,"Ġaccording":8445,"Ġabandon":8446,"Ġaccidentally":8447,"deskew":8448,"Ġpurposes":8449,"Ġpencil":8450,"Ġpipery":8451,"Ġpadding":8452,"Ġprediates":8453,"Ġpractice":8454,"Ġpower":8455,"Ġpolynomial":8456,"Ġpicture":8457,"radial":8458,"setParentStyleSheet":8459,"setPlatformShouldAnt":8460,"Ġfuture":8461,"Ġfilled":8462,"Ġflowi":8463,"Ġfourfold":8464,"unsharp":8465,"Ġslide":8466,"Ġsanity":8467,"Ġsyslog":8468,"capabilities":8469,"carving":8470,"Ġwords":8471,"Ġwriting":8472,"Ġnighttime":8473,"Ġnlattr":8474,"Ġnasty":8475,"lookup":8476,"complex":8477,"coalesce":8478,"combine":8479,"isViewSource":8480,"isPrintScalingDisabledForPlugin":8481,"isMobileDocument":8482,"ĠFilePath":8483,"ĠFlashPix":8484,"ĠFilling":8485,"ĠForbidden":8486,"ilegedProcessDelegate":8487,"))))));":8488,"operational":8489,"chrooted":8490,"chromeos":8491,"convolve":8492,"ĠSHOULD":8493,"ĠSTRING":8494,"adjoin":8495,"Ġinevitably":8496,"Ġinvocation":8497,"Ġreloading":8498,"Ġreceiving":8499,"Ġreserves":8500,"Ġduplicate":8501,"Ġdrawing":8502,"ERESTARTSYS":8503,"Ġlibs":8504,"Ġmalformed":8505,"ĠInspectorTest":8506,"ĠIntentional":8507,"ĠNaClProcessHost":8508,"ĠNetscape":8509,"arraycount":8510,"liquid":8511,"Ġversmajor":8512,"INDEX":8513,"INDATAGRAMS":8514,"Ġintensify":8515,"Ġthousands":8516,"STREAMS":8517,"Ġconfiguration":8518,"Ġconvolving":8519,"Ġseveral":8520,"Ġsecurity":8521,"Ġseparate":8522,"Ġgrrr":8523,"Ġgaining":8524,"Ġguarantees":8525,"Ġequalization":8526,"Ġemulated":8527,"Ġefficiently":8528,"Ġdecided":8529,"Ġdelineate":8530,"Ġdeclare":8531,"Ġdepends":8532,"Ġdeliberately":8533,"verbose":8534,"ĠOptions":8535,"ĠOpenBSD":8536,"ReserveInstanceID":8537,"ReadyForPrinting":8538,"ĠDOMID":8539,"ĠPREVIEW":8540,"ĠPrepareFrameAndViewForPrint":8541,"InformationW":8542,"Ġwebkit":8543,"SEQUENCE":8544,"solarize":8545,"ĠTechnically":8546,"ĠTerminateProcess":8547,"ĠAPEContext":8548,"ĠAutoFillMetrics":8549,"ĠAppLauncherHandler":8550,"Ġstraighten":8551,"Ġanimation":8552,"ignored":8553,"doshn":8554,"ENTRY":8555,"ENUMERATION":8556,"ĠCompare":8557,"ĠCancelFallbackTick":8558,"ĠCURSES":8559,"ĠCandidateWindowController":8560,"ĠCloudPolicyController":8561,"viewSourceStyle":8562,"REASON":8563,"REORDERED":8564,"cheNewNodeSet":8565,"quantize":8566,"Ġkprobe":8567,"ĠkIBusDaemonPath":8568,"ĠkCreateProcessPipeNameClass":8569,"ĠkMinDpi":8570,"ERRQUEUE":8571,"ĠMIPS":8572,"ĠMogrifyUsage":8573,"ĠEvaluate":8574,"ĠEssentially":8575,"ĠOnSnapshotAccessibilityTree":8576,"Ġgeneral":8577,"resumable":8578,"Ġpairs":8579,"SetUnmanagedState":8580,"SetTextTrackSettings":8581,"SetActiveURL":8582,"SetCompositorFrameOnUI":8583,"Ġtruncated":8584,"StartWithLaunchedProcess":8585,"Ġnetsnmp":8586,"MACOSX":8587,"UNAVAILABLE":8588,"UNSUPPORTED":8589,"UNMANAGED":8590,"Ġhistogram":8591,"Ġhours":8592,"GetExpectedPageCount":8593,"GetLastError":8594,"GetPrintSettingsFromUser":8595,"GetFunctionPointer":8596,"GetParentDrawConstraintsOnUI":8597,"GetNativeLibraryName":8598,"GetWatchedObject":8599,"GetInstalledExtension":8600,"Ġexcludes":8601,"sigmoidal":8602,"Ġassemblers":8603,"Ġdescription":8604,"(\"'-'":8605,"Ġapplication":8606,"Ġuniquely":8607,"Ġunauthenticated":8608,"Ġendianness":8609,"appAdded":8610,"appMoved":8611,"DemandDrawHw":8612,"Ġtraversal":8613,"ĠGeneral":8614,"ĠGDBusConnection":8615,"ĠGNTCOPY":8616,"Ġattention":8617,"Ġattributes":8618,"Ġattacker":8619,"netprioidx":8620,"EXCEPTION":8621,"EXPRESSION":8622,"EXTENDED":8623,"EXCHANGE":8624,"Ġprivileges":8625,"INTERRUPT":8626,"ĠPrintingMessageFilter":8627,"IGNORE":8628,"ĠUrlFetcher":8629,"ĠURGENT":8630,"ĠRandom":8631,"Ġ8192":8632,"ĠListMagickVersion":8633,"Ġretrieve":8634,"Ġretransmitted":8635,"LAUNCHER":8636,"OnDeviceOpened":8637,"OnObjectSignaled":8638,"OnScriptedPrintReply":8639,"OnProcessLaunchedByBroker":8640,"ToBeHighlighted":8641,"Ġbackwards":8642,"WebUIDataSource":8643,"Ġusefulness":8644,"AddUnique":8645,"IsFromBookmark":8646,"IsDeviceAllowed":8647,"IsSameProfile":8648,"Ġlessen":8649,"CONSUME":8650,"CONSTCOND":8651,"PREDICATE":8652,"ĠXHCIPort":8653,"Ġintermediate":8654,"FromMediaStreamType":8655,"predominant":8656,"ĠHandleGetApps":8657,"ĠDeviceManagerImpl":8658,"DoGenerateProxyAuthToken":8659,"MetafileReadyForPrinting":8660,"PageLayout":8661,"Unavailable":8662,"ĠGetContentClient":8663,"ĠGetClientName":8664,"ĠGetPrintScalingOption":8665,"ĠGetDevicesCallback":8666,"Ġsupposed":8667,"ĠAddPolymerElements":8668,"CreateAudioInputIPC":8669,"xmlXPathCompExprPtr":8670,"xmlXPathNodeSetAddUnique":8671,"xmlXPathCompOpEvalPositionalPredicate":8672,"xmlXPathParserContextPtr":8673,"Ġspeckles":8674,"ĠxmlXPathNodeSetFreeNs":8675,"ĠxmlXPathCacheNewNodeSet":8676,"kErrorResponseDecoding":8677,"kErrorHttpStatus":8678,"kErrorTemporaryUnavailable":8679,"strokewidth":8680,"ĠSetAppToBeHighlighted":8681,"ĠSIGKILLed":8682,"CompositeHw":8683,"CMODEL":8684,"finalframeblocks":8685,"ĠBINTEST":8686,"ĠBuildID":8687,"ĠBrowserViewRenderer":8688,"INSTANCE":8689,"Ġgranularity":8690,"AudioParameters":8691,"AudioManagerBase":8692,"FPUSED":8693,"FPKNWN":8694,"UPDATING":8695,"numports":8696,"interpolate":8697,"ĠOnSuccessOpenCursor":8698,"EMPTY":8699,"SYMTAB":8700,"drawFocusRing":8701,"ĠSkipRGBMipmaps":8702,"ĠSkipDXTMipmaps":8703,"ĠWebKitWebViewBase":8704,"IBusPropList":8705,"kSettingGenerateDraftData":8706,"kSettingMarginsType":8707,"CSUMERRORS":8708,"GROWSDOWN":8709,"Ġauthenticated":8710,"Ġdistributed":8711,"ĠAVPacket":8712,"PrintPreviewCancelled":8713,"PrintPreviewInvalidPrinterSettings":8714,"PrintPreviewScalingDisabled":8715,"PassUncommittedFrameOnUI":8716,"ĠInputMethodIsActivated":8717,"DONTWAIT":8718,"NoNewFrame":8719,"xmlDocPtr":8720,"Ġappears":8721,"Ġdiffusion":8722,"ĠMaybeLaunchInputMethodDaemon":8723,"LIBRARY":8724,"ĠUnprivilegedProcessDelegate":8725,"ĠInputMethodLibraryStubImpl":8726,"treeBoundaryCrossingRules":8727,"ĠConnectToExecutionServer":8728,"ĠReturnUnusedResource":8729,"ShouldUseBrowserOverlays":8730,"kSettingHeaderFooterEnabled":8731,"kDefaultWidthRatio":8732,"Ġlabeled":8733,"Ġrectangular":8734,"ĠIsPrintToPdfRequested":8735,"ĠParentCompositorDrawConstraints":8736,"ĠUpdateMemoryPolicy":8737,"ĠResetScriptedPrintCount":8738,"ĠHttpNetworkSession":8739,"kErrorServiceActivationPending":8740,"AVFormatContext":8741,"SendNotImplementedError":8742,"ĠkPipeConnectMaxAt":8743,"ĠkPipeBusyWaitTimeoutMs":8744,"ĠOnTextTrackSettingsChanged":8745,"kErrorServiceManagementNotSupported":8746,"ĠUpdateFrameMarginsCssInfo":8747,"ĠUpdateFrameAndViewFromCssPageLayout":8748,"CalculateScreenBounds":8749,"FRAGMENTED":8750,"WinStationQueryInformationW":8751,"kCreateProcessDefaultPipeNameFormat":8752,"setPlatformShouldAntialias":8753,"ĠkPipeConnectMaxAttempts":8754}